node {
  name: "global_step/initial_value"
  op: "Const"
  attr {
    key: "dtype"
    value {
      type: DT_INT32
    }
  }
  attr {
    key: "value"
    value {
      tensor {
        dtype: DT_INT32
        tensor_shape {
        }
        int_val: 0
      }
    }
  }
}
node {
  name: "global_step"
  op: "Variable"
  attr {
    key: "container"
    value {
      s: ""
    }
  }
  attr {
    key: "dtype"
    value {
      type: DT_INT32
    }
  }
  attr {
    key: "shape"
    value {
      shape {
      }
    }
  }
  attr {
    key: "shared_name"
    value {
      s: ""
    }
  }
}
node {
  name: "global_step/Assign"
  op: "Assign"
  input: "global_step"
  input: "global_step/initial_value"
  attr {
    key: "T"
    value {
      type: DT_INT32
    }
  }
  attr {
    key: "use_locking"
    value {
      b: true
    }
  }
  attr {
    key: "validate_shape"
    value {
      b: true
    }
  }
}
node {
  name: "global_step/read"
  op: "Identity"
  input: "global_step"
  attr {
    key: "T"
    value {
      type: DT_INT32
    }
  }
}
node {
  name: "input"
  op: "Placeholder"
  attr {
    key: "dtype"
    value {
      type: DT_FLOAT
    }
  }
  attr {
    key: "shape"
    value {
      shape {
      }
    }
  }
}
node {
  name: "output"
  op: "Placeholder"
  attr {
    key: "dtype"
    value {
      type: DT_FLOAT
    }
  }
  attr {
    key: "shape"
    value {
      shape {
      }
    }
  }
}
node {
  name: "HistogramSummary/tag"
  op: "Const"
  attr {
    key: "dtype"
    value {
      type: DT_STRING
    }
  }
  attr {
    key: "value"
    value {
      tensor {
        dtype: DT_STRING
        tensor_shape {
        }
        string_val: "X"
      }
    }
  }
}
node {
  name: "HistogramSummary"
  op: "HistogramSummary"
  input: "HistogramSummary/tag"
  input: "input"
  attr {
    key: "T"
    value {
      type: DT_FLOAT
    }
  }
}
node {
  name: "HistogramSummary_1/tag"
  op: "Const"
  attr {
    key: "dtype"
    value {
      type: DT_STRING
    }
  }
  attr {
    key: "value"
    value {
      tensor {
        dtype: DT_STRING
        tensor_shape {
        }
        string_val: "y"
      }
    }
  }
}
node {
  name: "HistogramSummary_1"
  op: "HistogramSummary"
  input: "HistogramSummary_1/tag"
  input: "output"
  attr {
    key: "T"
    value {
      type: DT_FLOAT
    }
  }
}
node {
  name: "fully_connected/weights/Initializer/Const"
  op: "Const"
  attr {
    key: "dtype"
    value {
      type: DT_FLOAT
    }
  }
  attr {
    key: "value"
    value {
      tensor {
        dtype: DT_FLOAT
        tensor_shape {
          dim {
            size: 8
          }
          dim {
            size: 289
          }
        }
        tensor_content: "e9\312\274\250_\310\275X\271\273\274W\223\302\275\t\254\352\274\014_\215\275\345\027\210\275\013u\'=*\233^<\313\014~\275|\005\274=\227\037\356=*2\000>P\247\205<\365\200\236\274\224\010}=\003H,\274\007\233\304=^|\004\2755L\275\274\230\306\265=,ej\274+\236\332\275u<\304\272E\3419\275\254\002\014\275a\264\t\276\267\300\375\273\331P\023=2\327\004>A\241\371\275\t%\245\275\021u\n>*\334I\275O\3259\274\300\265\345=\327\374\344\274\322q\335\275u\316\203<sE\370\275\207\320\316<D\231+=\265\262I=4G\300\275g\005\274=.V\016>\007\031B\275H\327\r>\376t\210\275\371@\300=\303\245t\275\016,\270\275\277\031s\275Y#\t>\302\300\334=\006B\205<\215\375\244\275=h\006\276\354-\304\275\364\266\t\276\017?\225=\356\\\315<\237\351\357\275\255\004O=\326cK\275\223\343\261=_+\377\275\013\027\244\274x\013&=u\304\222\275\211t\334=e_\202;\227\334\233=\375,\331=9^E<z\222\223\275,\374\364\275>\314\271\275p\307\247\275\036\357\324\274$\201\017>.\276\366<m\270\331\2734\004\004>E\240\375=\310\353\337\273\310l\n\276\036\"L\275\341>\216\274\2770\023<\013\254\331<\332wo\275\316\330\225\275\270\267\364=8\273\217=\313\362\017>L\337\024\275I\325T\2756\376\323<\276a\371=\366\252\004>]\257\247\275\370\221\250=\214\022\034\274\267\234R\275\267\263p\275\331\375\312=\361J\214=\307\237\002>v\244\252=l\362\231=\346Kj\275\020\214\r=\232l,<\264\310^\274\221Q\224;N\033X\2759#\\\275\031\243\304=\232\244\242\275\311\317\017>\032\365\376=\021\202\236\275<<\320\275\351\016\244\275[\236\276=C\251\014\276\312\332\267=$\021\324\274\t\232c=i\216\005\276\316+\252\275\361)r=e\003\332=^q\346<\275\036\316\275\300)\007\276\370\346 \275*n<\275\266\022\016>`\327e==\211\364\274r\364\027\275\312\014\235\275\271\256\371=\307d\t>\014^\304=:D\003\275mT\372\275\270\010\274<\2206\000>\375$\200=\351\014\216=\201\330\243\275\025>\321=\354\2700;}\206a=\207\214\332\274\350mB\275\303d\021>\272\341\311\274\243#y\274\'\001\002>s\272\223\274|U\375\275\352Yg\275w\203\336<\007x\255=\014\346\021:\302\350\007>\260\020;=\361s\374=e\177\213=\000\334\017>4\240\271=1MK=0s\204\275\372\304\304\275?3\274<\265\360\344\273\262|\312\273\203\312\n>H\240\332\275\256\203\326=9\320\006>|\370k\275\234\341\256=\000\014\014=\360\201\036\275)u\253;\230\256g<\020\233\245=\2512\302\275\372`\231\275\032\320\224<4\024c<\235S\271\2759\355\024<\241\200K=\222l|=\253S\314\270\324X\000>\214\273\317=2\3354=W\353\007\275n\315\271\275\006\202w=\3053\227\275\312E\264=.\262\341\2753 \347\275F\244\254=\212\252\321\275\304\257\233=\\\375\365\275\367\330\366\275\017\005)<O\221;=a\215\233=y/\000>\223+\000>\2220\\=\242e\274\275\372\244u=3[\004\273\323L9=\245\332L\275\366\250\222\275\216\n\005=#\353\265\275\333\005D<8\231\003>Nt\276\275^.\354=3\251\306\275\370-\347\275\330\360\335\272\314v(<y\314\324=a\033T\275a\002\243\275O{\002=6\204\242\275+\342\336=f\027\207<\'\275\305=\354\257\273=o\013\207=*N6\275\273\265\344\275IFl\275\245\026\'=\254\276\252\275\303\"u\274+\336\t=\305\374;\275\007pb=/\r\035<\373\342\311=64\206\275\210(\230=\375\211m=\230\001m<@\035]=\n\324\211\275-T\270\275\021@\005>M\333\020\276\2154;=\264\327\013\276\211B\003\276\364\024\231\275\350\006=\275\332\371\371\274\266J\250\275\377D\217=\276`:=$k\361\275;\333\365\275\226\310\243=a\270\010\276\211\010\234\275\314\004`\275\303\177\227\275\307\327\010\276\333\343\322\272\274\211\230=\340\001\340\275\262\354\322\275\0220\006\274>\002\020\274\316\013\217=P\331\260\275i+\320=\235)\206\275\206\202\221\274\361o\343=\201\316\t>K\266y\275f\374\030=\343\362\250=\327XZ\274\263\277?=\213\264\317=F\352x\275%>\323\275\335\227#\274\320\207\016>\2444\004=\232\rJ<\361\022\021\276[\035B\275\244fe=5}\310=\337\370\232\274\334q\310\275b\203Q=X\234\274\275\241\355\020\276\262\200+=\362\374\357\275\217\260\t\276h3\303<\367\227\225;\370K\343\275\234cQ\275\322\326\267\275\206+\003>dF\317=\210\307\305=\005\306\001>.\326\326=\215\207\214=\3274#=\252L\374\275\034#*\275\266\025\315=\335f\202\275\254\250b\275\377k\326\275\035\347\275\273!\\\n\276XY\020>\257\250\326\274\260\206\352=}\215\247<n~\353\274\314\316\214\275\334\323\000>\"\214\007>]\206\361<H\241W<\343\374\340=\264W\373\275\\\232~=(\267C\274=%\326\275Bg]=\224\360\242=5\374\014>3\305\330\275q \262=\243N\373\274\343W\233=\246\211\271=N\342\247=\246\355\223\273[1\020\276\260&\241\275@.\373\275\'\312\267:M\025(=\330\373\354=m\323\013\276\256`\004\276-I\024\274\355s\262\275\263t\315=\353U\013\276{\371D\275\027\027\'<1\027\017\276<\000`\275\261\200\330=!\335?=\224\204\342\275\232\252\004>\307\322\367=\370\237\001=\014\221\301\275\363\201\365\274\356\205\346=(\256\220=\365\t\256\273\370\217\017\276\024\t\205=\333>\353=\272=\003>\205\257\017=\016Z\230\274\212\007\336=|\020\375\275\210\277\245;z\250\324\275\351\342\301\275,\240\223=\3653\013\276H\370\033\275\344>\263;\234\321\321=m\336\336<;\250*=^\265\025\275\001\264l=M \315\275\236\331\210\275!\025.\272\2278\376\275\337\353\314\274a\245\010\276\376%\002\276\226z\340<Y\242\375=!\356*\275\021\212k=\213;\320\275@&\322\275P\204\221\274\306\370\r\276\250,\326=iW\345=!{\255\275k\177\220=\233\341\212<\321\302\353=:\222\375\275\206F?=G\222\025\275J\277)\274\224-\004>\325d\365=\363\025\311\275G\341\013\276\332^i=\026\270,\275\366#3<bC\240=\224\301\262=dI\220<\240vU=%.U\275\3471\367=\231\036\000\276\022E\316=\300\306\377=\027<\231\273.3\333=1\026\034\275K0N\275\372\215\177\275\2713\377;\360O,\274#\204\010=$\024\021>a\331\272=\010\234\242=k\031\r>\325\303\014>\374c\255=\367\202\207\275/O\244=\246\014B=\0306~=\251W\266\275\024e\253\274\223\260\262\275D\257k\275\027\341\212\275<\033r\274\013\224\305\275\200\003\030=\037\340\235=)G;\275\203\256\302=x\357;=l.8=\033\265\001=>\363.=.=\305\275$\211\256\275\017BO=\305q\271\275\226D\027;\231\202\205=\357\327\347\273\025\002\271\275\341\241\230\275>\331\366\275\226\255\216=\3264\235\275\014\273\340:\216E\221=\355\371\341\275E\033\273\275K\331\360\275\350\340\001>YQ\002>\301\243\004\276\245\331\351\275P\371\277<\256\246\232=S\331\362\275\271\223\276=v(\263=V\231\266=$\'O<\325\023\360\275X\246\363\275\254\252\255=\r\273\334=\204JK\275\336\371\013>R\261\217=\204\256\261\275\367\022|\275R\251\253\275n\031x\275~\255\320\275\257\371\007>+\222\037=^\"\030\275t\217\001>\3610A=^\330\356\275\307#0=]=\364\275\233\356\t>&`\327=\360w\267=\002\343\374=\205\371\010>h\360\226=\267\212[\2744w\374\275\234\236\353=j\204\r>\245\250\377\275~\022\272=}S\224=\357\177\r>\031Xk=&\207\213\275:\232\371\275\035\343\272\275\217\312\356<\344\006\304=\274~\364=\355z\325<\210\223\006\276\324W\243=\216\334.;\207\343!<\376\330\020>\264?\243=3/\326\275J\357\262\275\341\255\000\276He\245\275\374\341\224\275\034\271\260<.e\270\275\207\206\226=w,\345=%G\337\275\244\302\343\274\037P\001>\212\361\311\275`\021\0369fU\251=\013\251\372=e\352\031\275\007\335\034\274\270Q\036\273b\310\214\275\271\330\333\275Q\335R<\2232\214=\256\244M\274o\236\230=\310MT\274\341\r\321=\347AG=Oo\341\275\372:\216=[8\333:.\307`\275/r\363\274<\020\206=\251\027\351\275t}\323\273m\001\026\275\203\177s=\220$\033\275\t\203\252\275\347\037\t>9\351O\275R\235\363==\253\225=\243\262\360\275N\237\221=WT\205\275\250\210\362=^-\005\276\375H\r>\034\243>\275b\256\327=\276\217\321\275:\242\376\275\004\031\271=j\263N\275!F\274\275\026\364n\275]+\327=\253:\365\275-\333\212\273o\030\274=n\226\205=/a\316=#\306\000<NeJ=<\227\243\275\224\316\316\275\001f\001>G\345\276\275\240&\340=$^<\275?\321\377=K\323\010>\332\374\216\275\266\3371=\340v-\275\312\r\323\274\310\260\251\2755\037&<\356 \273=r\305\264=T\024\255\275\306\022\251<\263\'\266<|W\t\276\212R.;v\257v=\261\272\201\275\224\350\017>\336-\277=&\263\355=u\365\246=\330\313\302\275[\366\n>\354\307\020\276P\315\305\275J\317\207\275\215y\273=\272M\215\274)f\261\275\017\306\n>\357\275J=\177\267\007\276\3746\361=\353\214\356\275\020\221\301\275\213{\236=Y\261\356\274\363\364\330=at\357\275\226 \013>]\252N\274\230\357\357\275\264\213\017>\003\366\371\275\001\177\215\275\266\314\001<\332+%\275Sk\247=\302\006\t>W\254\351\275\007\007\342\275Kv\366<\210\205\377\273\325,t\273\032\262\217=S\024\363=\035\230\373\275\030\2577\2752\370\006>\227\307a\275\373\212\350=\332\371\247\274\013p)\274\032W\006\276Ok\n\275\347|\200<\313\333\311\275\3659\177=V\337\312\275=z\252\275\002\274\333=:3\225\275R)\253;\335?c=!)\346\274\340\313\275<O\253\325=\222F?=/\235\255\274\317}\326=(\0204=)\335\334\275\234\t\000\276\033\316\303\275\353\213\211\275\351\365\241=\363\316\304\274\227\263\324<W~\254\275\216+\351\275\356N)=\357\3466\275\r\365\357=\0379\257=\260-\377\2753\371\204\274y\232\013>\205\2246\275\222\342\265=#\202\253=\345\221z\275Ea\233=w\255\250\275\006\314\007\276g\'O\274Q\257\242\275c\320\213<yp\001>\021eS=\241\363\236<\013XH<r\353\035\275\353\322E=j\217\236\275\230\034\030=\305\177\247\275XV\373\275\316\313\335=\230!\230\275\013\212{<c\215+\275\365\362\327\274%\356\247\275\225\315\221\274\003\371\375<\212j\n\275\017\343\226;\263P\316\275\336\327\017>\240$\221\275\201\017\226=\260\211u=\301\003J<\246\324\244=-[ =\201\241]\275\007\275\213=\317d\316=\344\014\t<\t\225\024\275\273y\353\274\302M\325=V\334\231=\274\024\275\275z\273\252\273cA\377<tmO\275\213E\261\275\210m\201\273\226\257\342=\211\037\206\275\317\217\t\276\333&\237<NBY\275\002\200\347=\267\247J\275IDp\274\312\376\277<\225G3\273E\305\234=/u\014\276\210n!\275\330=\207<\225A\000>\263\211\317=j8\234=\376l\247=W\031t=:\226\000>\264\306\246=\331\367\362\275R{\343\275\306$\216\273\360\202\014>\236V%\275\270\3019=\316\177\300\275\221\213\240=G\375!\274\372(\274\274\306;\274\275E\360\203<\r\235\032\275\321%z==\2300=\0203;=\215\014\205=\3701\367=\260m\005>\210\"\304=\271U\211=+g^\275tFV\274\334l0=\033Y\264\275 ]\257\275T?\335=\207\253\223\275\231\3155:\231\235\224\275\275\023a\274\342\330\016>\253/C\275$\335\323\275\201F\307=\256\354M\275\336\231\010\276ujL=\032v\000\276\307z\216\275\2609\342;(L\017\276Z\014\002\276\024\260H=\327\242\333\275\274\205\247\2756\"\315=\200\230\034=\340\367k=`\346\312=\254@H=\304M\007>\307=y=(\033\320\275\374J\315=\013\022\246=\036\t\353\275\324\330\265=\0075F\2753\257\321=\010\307\376=\227\020\023\273!s\010>\010\031\t>\035\033\364=\305\220L\275\345\224\357=\320\310S=ZM\305=\r\202\342\275@\202\002\276R9\204;d\207j\275\037\026\217\274\27547\2758x)\272P\261\005=\220\266S\275\034\013\037\275|(8\275\022G\200=\002\340\256\275Y\336x=\037\255\020>\210\"\004\276\214\255\010>\375\277\216=\033\270\212=-$\362\274}\252\340=|\263\272;\034\242U=\213J\\\275\240\342\345=\\,\322=\rB\305=>,\264<u\212\356\274\336\353\312\275\335i\221=^i\n\276\212\246\204\275^\303\000\276\262x\242\275u\322\222=\r\376\016\275d\t\232=\357l\006>\304\372\316=\311\262\235\275\022oY=f\020\260\275\336\244u\275\346\353s\275\274!\271\275\246\023\211=\327^&=\025\375\233<\333\363a=3\267\357\275\277}\345\275*N\213=\263\375\333=q\221\241\275\225\303\253=\375v\201;u-\026=~F\315<\245\353\306\2753\250\t>\351e\225=m\n\305<\351\312\357=\342\315\016\275\004\027\360=k%6\275~p\336\275\262\336M=rS\243\275z\212J<EU\n>?\006\\<hK\356=\331H\256=_\025\262=\022\253\361\2741\314\000\276tx\273=\216\177c=\305O\316=\260*\275<7^m=\013#\024\273\376Q\002>::\371;\370\313I\275\203\257\264=\333\341\255\275\271q\002\276\361\332\330=~\023\361=@\001.=\336\314\315\275.\367\316\2755\224\213=\241!\324\275\342Uj\275y\315\200=m-\030\275\t/\305\275\251XY;y/\321=\316\360\r\276\327\235,<\223B\325\275\321\026\025\275h%\005\273\205\241\017>{\276\005>1\307P\275\211\347\247\275\302&\r\276\036\311\267\274\212\217\020=\203\004\342\274\366|\211\275\236\314\004>\275z\220\275\013\253\204=\270&\272\275_F\345\274\2155\016\276]3\243\275L\332\257\274\213\022\226\275tw\006>\352\230\257=B]=\275\005\376\341\275w>R=\034\251\277\275D\016<=\\\n\215=\\c==\030\371\346\274l\324\273\273@\260\250\275\371H\345=\231S\311\275\246\202\371\275\005(\002;#=#\275\0063\237=\251\244\324=4\352K\273~\326\311<L\235\226=E\021\030\275\236\373+\275\334f\001>\244\243\365=*\232\326=\257F\004\276\214[z\275Cjb\275\343&\266\275X~\337=$\267\272;\307\224\207<~=\001>\362\321~\275\263\r\316=\252(\246\275S\360\207\275#\204m=\221e0\275:\211\017\276\177\255\016>\371\232\256<\205i\221=\022\013\014\276\235\037\262\2738\360\003>\3076l\275u7\364\275Zt\006\276\030\263\354<\320\201\r\2765N\002\275z^\021\275\\\244\223\275\346\372M\274U \362\275I\347\371\275FA\003>\342`K\275%Aj\275[\216\377=\301\271\267\275\204&\355\275\364O`<\304\035\t>\003\017\356\275\327\301\332=F\342\231=U\216\327=)[e=\223\022\332\2754\233e<\177\203\210<\266/\330\274N;\235\275\014\220?\275\327F\203<\034\307\351\275\355\233\035\275\033d\325\275)Z\300\275K4\003=\333hv\275\301\373\247\275\262\025\366<\330\r\276\275\252\207\n>;\325\374=KJ\320\275r\245\337\274\254\301\357\274\261\333\003>^\325==o\345\"=M\232>=3\375\322\275D\337\221\274D5\317\2749\005\033=\006u\200=\"E\357<M\023\263=\256\357\351\275\263%\240=\220\312\020\275}\315\t>\324w\346\275s\274=\275\301\350\273=\242w\263:5G\335\2753v6=\013\315\234={\373\037<\356y?\275Ew\206=\377\255\r>\025,\347=\3042%\275\226\317\202\275\347B=\275\240\020\262\275<\245[<\202\227\247\274\025\344\\\275kk\234\275\205\243\211\275\223\201\021=\223f\340=\235\025\336=x\216\021\275l\345S\275\265l.\275\351\215\207\274-\240\220\275\245\271}=\017\336\007>\324\325;=\240\242\010=v\367\010\276\031\313a<Y\233}=\262Q\314<x\255\217\275\370T\326\275\022\244\000>\327\212\003\2750\200e=\037}r=1\301\021=X\203\014\276\304<\221<\271}\247\274/l\014\275\376J\331<k\204\221=\353!F<\177<\362=\'\232\262=\357\r\272<\257\373\014>\326\036\022\275\351\345_<\321\333\r>\224N6<\241\335\374=\013y\001\276\177\373\221\275D5\255=y\222\214\274\340\007\255=\031\257\021\275\265\366\276;\222\361S=Z\346\367=s~s\275-\005\217\275\263\225\233=\020n4\275\274\223\361=kZ\223=\026\370\343\275\365\005\000>\356\002\321=\351\226\320=\331\212\005>\362\016\344\275Lj\350\274\357\205\355\275\207t\313\275^*\356\275\372\327m\273\307\3248=\332~\352=F\373\013\276\242\345\000\275%\231\250=\265\302\223\275\"\264\001\276\2004\020\276\302\214r=\263`p\275H\352\276=x\206\345\274\352\355\010\276\340B\227=\035\354\t\275}\014\323\275\207\307;\275v\242\360=6\231\237\2747\263\267\272\271\017\353=SH\316\275\001\214\336\274%\037\264<\377\277\270\275\262\220\250\275C\320m\275\037\250t=\270y\237=\234\\\304\275\325er=a\024\263\275)\245\202\2752N\324=\227g\223\275\234F\t\275@\360\017=\337\267\335<\rm\301\275i\r\000\275\034\032\235=#\204\347=\375\331\275=r\023\003\276L\240\357=\370(\307\275\204H\242;\276}\243\275\216\217\222=9\036\336=(\267\215=bk\000\276c\026\213=)\207\026\274\356D\t\276\341k\340=S\340\006\276,\000\334=u\316\027=\377\251\351\274\230\363,=\321>-=k!\006\276N\"\302\275Qw\314=\265\315\273=\256m\006\273\366E\226\275\354\267\241\275\313\366V=v\373\246<^\r+\2754JI\275(d\000>\232U\337<\007\272<\275\346G\016>\255S\370=d\026\t\276\177\013\367=B/\006\276W\337\212<<\002\221\275w(e\275\326\267\324=\223\210M\273\003\362\230\275O\211\001\276\031\341\016\276\321D\346=\032_\374=7\363G=7 ~\275\006\226\000\275\020>\350=\017\274\r\276\251Y\214\272{\333\242=}\307\276;\023\014\275\275-1\323=(\230\264\275\312\226\025\275P\026\227\275\336\020\272\275\233\272\004\275\237t\233<\261\2306\275\330\345\372<\326\303\007\276)\t\201\275q%\332=\211\034\331<\005s\034:\256\234\242\275w9\301\275\311\240!\274\211\216a\275\005vp=\350\275\317=\007k\215\275\302i\206=\340X\220=[43\275|@\327=\313\242\004\275Uw\222\275\317\312\354\275\263\005\205\274\033/\023=\007+\244=\343X\r\2764\277\242=\357;\020\276\2234\324=\235\026t\275Z\364\356\275\320\216\361\273\014a\3008\033\303\203\274i\331\304\275\373\267\217\275t\2625\275~\224\265=l\371\273\274\205k]=U\261\r>\234\2025\275/\377\271\274\375\232\242\274\300\272\r<\003\317#\275-/\263\275\274\240\213\275U[w<z\036\013\276~>\000=\020\251\007>6\306\256=k\324\357\275\260\256\266\274\346\225F\275\304\304y\273\025\300\006>B\211\213<$\026t\275\016\265\024\274\264\261v\274[\001\306<\333\306T\275\226\250&=]\010\212=\222\'\353\275\214\321\256<\317\214\320=\221\326\327=\375\334\005>%l#\275\036Z\233\275c\315\345\272\215x\360\275(\213D\275\020\257\231<\207\215B=\375x\025<\005%\020>\377\351\224\275\201?\364=\322\242\236=\371\215\275=|\350G=\273\364\005=\307b\267=\356\037\347<\365\024\215\275\245#\342\275\245\333\244\275\220I\321=\206\321>\275\206*\017>\3534K\274,\3201\275\3511\257\275\241\251X\275@);\274\355_\005>\363\206\357\275\014{_\272\205\022N\275`f\005\276\367O\235=\022p\200\275\260\025v<\340&\211=\253\343\374=\356\364\215;\375\344\034=\326\312\303=p\214\017\276\227wL\274z\006\334\275\226\350\272\274\347\203\347=*\243\215<\005bv=\'@\213=\035-9\275\311\330\216=\330\274\305<\346Jv\275\263\231\276\275\203\227\316=\226\377\350<\255]\006=\304T\301=\r\330p\275\201\306\272=/\211\261=\366\211\004>h\370\327\275G\347\031\275&J\252\273\016.\275\275m\252\036<\370am=\177\244\021=\262G\202\274\311\261\315;\021\345\364\275\257\317l\275Cb\311=p\220\013>W\340\264\275\202\225\374=\304\035\252=\224\330\373\2732\367\312\275\240.\t=r<\321\275\022\326\311\275\231\r\237=\315\252\345\274\223\236o\274\257\344\344=,?\275\275t\345\330<\257\240\201\274\177C\014\2764\353\334=\204K\251\274\261\222C=)\252/\274c\022\330\275\243\366\246\275Z(\322;\333+\336=$\215\237\275\221\205d=-\357\375\275\211\324\272\272h4\016\276\272\035\306=\343\273O=,\343\335=\034+\226=\237\224\325\274&\304/;\310\t\246=\213\274^=\312K\371\274ZN\373\274\204\310T=\"\324|=/\276\231;lw\250\275N\036\275\275J\375\336\275\321[\014>:23\275\337\267n\275A\346\010\276\262\332\250=n\300R=\324\254]=\215l\325=\0045\376\275\276\207\267\275{%\005\276\255\270\231\275<\217\344;\366\355\366=\371\227\013\276\214X\256\275V,\375\274I\337\264=)\267\336\275\374\337d=\025\002\001\276\006T\336\275\363\222\201\2741V\005>\036^\013\27698==a\277\213=!\324\007\276\277\311\306\275K\347\231\275\024-\n\276\274\320D=\326\226\357=\021\021\360\2757\010|=\307v\006>\377\rD=\377\027\371\275Ir\346<H\325\336\274b\3222=\004\345\311=t\323\203=J\252\333;\033,\352=XT\360\275\221\3048=\373\006\303=vZ\360\275e\245\336\274%80=\216\331\262\275\213\017\013\276\352\037\262\272\364P\341\275\304\361\n\274\337\035\037\274\034\007\205=\361=\272\270[cC=mwi\275\300\026\'\274\3018<\275o}\227=jj\025\275\032\362\326=M\217\332=\'\250\226;\236\347\353\274\330\351\000>\347\274\223\275\255T\232\275\300\273#\275)v\202=/(T=\353\242,=\006\007\237\275oZ\250\275\025\272{=\261\354>\273%\201c=3w\234=\327\331\330=\263s\014>\000p\343\273\324\026\203=\347\321\246=\007\260\275\275\324\260\217\274\023#\273\274H\271\372=\230\036O=Y\265E\275F\240\221\275\210c\031=\21549\275\001\030\361=\222Ec<\236\237S=\215\022\223\275\014\257\024=Lyv=VU\351\275\347N\234\275Y\335\237\274\314\365<\275\300\327B=\352x\375=\006\313\347=>\3378\274\002\231\277=vIg=\205\303\203=\243\332\207=a\216\226\275Hu)\275\367`\315\275`F\235\275\363\314\302\275=\213\355\275t\215\300=\306\365\201\274\345^\327\275A\201\311\275\205\347\246\275\320\306\251\273G\357\n\276\274\200{\275O\225-\275,!\363<\367\263\r\276\273\367\017\276\036:G<\260\253\256=\274\377\"\275Fu\260=$\255\023\275\214n\237\275o\306\005>\240jg<\024\033\225=\r\205\202\275J-Y\275\343\272\371=,\215\000\275\313^\005;\343\r\322<\306\010\036=\362\334j=\017\204\377\274\353\252\000>\213cI\275\315\346\243\275;\314\324\275\3704i=\006\314N\275\2314\362<\274\263\316\275\362\007\323:\230\212\243=\260\024\247\275xG\262\273\254Q\302\275\177\324\323\274Y\342\"=\306\304\332\275\324`\253<\346E\333<\254O\214=\3559@=\354\001\343\275X\377D\275\320\220\330=[N\205\275O\312\351=A\210\260<\252!\021>B\341\272\2742%m\275-\271\347\275\354\220\332<\035\257\003>\216E\035\275yW^\275\231I\006\276\377\367_=~\274\002\276\244Oi\275\224\311\206<I\270\017>a\025\331;[\314\275\275C\362\205\275Ev\007\276\'%\230\275s\261\n\275.\361\010>\032[r=\364)\000>\311\366H< y\003>\210M\267\275L\214R=\006\247&=J3\016>\022\223\200=w\252\264=\355,\337;{\361\253=Q\330n=S\023F\275\265\324\310\275Va%=%N\220\275 ~+<Ec\231\275\345\232\255\275\256do\275\'\250\374<\231\211\225=\376v\262=\037\020\266=\221\303:\275\360\264\006\275y\021\250=\216\"\365;\366\274\305\274\324\327\323=1\020\n\276\256\374\255\274N\210,=\312P\376\272\257\356\256=3\212\t\276g4\276\275\326\'\247=\362\337\003>\270\232\207=_-e=:\254\256\2750h\331=#&\361=\354\242\241;H\017\220\2756L\230=ld\316\274t!g\275\247j\354=\251\227P\2750\261D<\032te=\325\343.=\342\244\334:\213\245\013>\335\377\253\275vK6\274+v|\275\330\344m\275\034\251V<\237\216\366\275c\260<=o\311\215\275\275X%=\370\302\221\275\360\276\322\275\245V\301=\353\000\352<\313\254\331\275\035(?\274\310:\253\275\311\302!\275\344\310\222=\201\001\010>&\021\320:-H\274\275\n\247\213;M\201\377\274\317)\021>\177\254H=\266I%\274\317\276\356\275\304\010\357=\343t\001>\303\315\352=3\200\t\274\246J\002=\273\032\303\274\234\230.\275\324\217\002\276Fa\271\275\210\201d</j-=;&4\273\262\251s=\034\221\306\270^\034S=\323\003\245=n\223\334\274\260\306\335\2746\325y\274\310!\226\275\353\226\030\275T\002e=0\333Q\275\361\342d=cx\014>\000M\331\275:\320\223=\032\270\205=D\376\315\273\3150X=x\013\\=(\224\321\275\320\346*=\370)\260\275\002\026\'=\365\2339\274\310\251\267=\000\301\301\275\253]\217\275\214\231\251=C:\205=bTW\275\267\013\305\275\020\036\020\2761v\271\275HA\317\275\217[\021\275\355\204\215<\227\\\267\274\241\264\361=\341B\274\275\212/\014>\026A\001>\215\003\010\276\245S\340\275\003X\345\275\224\3332\275\032\325\001=\323\267\n\275\270\327\340\275/q\217\275U\2613\275n\213\010\276\276\370\213=4\016~\275\274\367[=\035\347\262\275\343\033\326<\367N\237=\025\231a\275\345\366\016\276\326\376f\275\377\323\261\275 \365\220=YTu\275\272A\224=\004\352\321<5\324\246\275\322\n\201\275\3454~=d\311\246=\250\224\322\275M\0050=j\032\370\275/\236X;Ng\232=\031\002s\274\254\303\370=)\224\305\275e\220~=\261\201\365<\227\377\371\275\363\002\007<\276\355\264\273\257\352\313\273\270\003\250\275\351\360\377=\356#A\275\234\274\374\275\357\246\014>W\344\017>`-\335\275\3155\r>p\320\373=}\255\000>b\000\245\275W\225\004>\314\234\245\275-9\272=%\311\232\274\320\026\206=\240L\255\275\215\226N\274Mf\257\275C\201\216\275\364\264\003\276,Bp=\315\"\265\275fu\t\276\204\232Q\2752\240\245=\031\260\277\274\237K\266=4GF=\274\213\254<8\330\302=[\222\224\275@c.<\232\003\370=\024]\006>=\004\316\275\220\031\271=l\333@\275\363e\021>\232\362\024=\201\016\031\275V\210\020\276\366^H=\n\3736\273\252\306\n\276Q\303\262\275\276f\306=$\306-\275i\345,\275o\037\303\2758\310\206=\001\032-=9w\214\275Nyk\275\363C\245=BZ\022=0\266\005>\200@\210\274\236\221Y\275\026\263\251\275\254\361\356=2\027^=Z^\306=\364B\273\275\207w\000>0\305\004=\007u)=\364\016\017=\314|\010\275\307\240F<\rD\013\276=\341\230=\276\373\002>)_\253\275\037\036\236\275~\271\222\275ss\321<vRv\274\305k\372\275\350\177\005\275\325S\006\276\257\361\243=\316\2303=\275+\027\275a\233\210=\025\224\207\275\306\271\225\275o\202\\<\024\304\350\275\3642\202\275i\317e=\330D:\275\231\311\276\274\246w\374\275\032m\241=\305&\327=\271\036\220\275p^\311\275{\342\357=o\265s\275\320\270\316<\263\025\257\274\370[\332=Cz\006\276|;\226<\270\365\254= \2474\275}\377\276\275HB\375\275Q{E\275\336\034\026\275$.\264=\347k\354\275u\277\275\275\353/\216<\322\224\003\275q\237j=Zu\010\2751\343\314\275\346\323\360\2757m\315=\312:\330\274\221\252\"=\211\302\273=\277\344\324\275\227\177\335=\205\"\360=V\204\014>\225\376\351\275\261K\013\275\217\360\003\274\263\266\361<<F>=w\331\253\274\003\367\231=\315O\004>2\372\025\274\010\235A;r8\341\275\203K\352<61\326=\344\004\351=6N\277\274g< =\333\177>=C\301\334\275&)\356=P\003,=\200\264\364\275\206\263\013>\261\314\214=\311h\024\275\217s\355=\025\014F\275\330\010\334\274\324\212(=\200\322\340\275\013z\230\275xP[=\323,\346\275Y\362\005>X\217y=\317\030\200\275S|\353=\374\263\371\274\370\303\313\275]}\035=\203\354\332\275\312\375\370\275\344\363C\275\007\231\216\274\246+{=\267\206+=\262\0025<[\364\224=\2717%\275Iv\256=\342\311m\273\261\322\360\274\251\355@=\334\276\247=p\252\302=1H\233=\222\343\307\273\\B\002\276`:\267\275Z\253\342\275\353\317V\274\331\035\002\276\'a\273;O\302/\275\323\264)\274\266M\035=I\261\344\2751E\366\275\346;\014\276\253\326q=\271\3348<\361\305\336\275\0076\201\275\373\334\276=\307\211\235\275\3045/<\003\301\014\276t\033\212=\246=\307\275\221r\266\274\034\326t\275\355G\375\275\240HU=\255F/=U\254\243\275%B\010>_8\234=>@\001\276T7\324\275\245\260!=\270\246\016\276uR\232\275\215\003\t>\243\356A\274\241!\234;\007Q\035\275\2503\250=\322[\235\274&m\001\275B!x\275\256\254\005\276\207[\247\275\216\232\013>\355\232O=\320ZC=>1\021>&>!=\234\010\205\2753\234\341\275Q\311y=\212\257\337\275\307O\'\275%\017\373\275\010R8<\205*<;\n\347\246\275\367T\233=\241XY\275\023\313E\275p\356\274\275\337\001\255=\275\344\007=\006t\350\275\016\013G\273#\205\231\275\212I\360\275\'[N<\331\365\230\275\375\031\317\275i\257\340=o\204\013>\203\276!=fR\247<\014\251\014>\022\312.\273\326\370\266\275\315\301|\275\005h\223=\347\342\320\275\374\027\223=\247o\331\275\204\332\324<f\313\315\273\304\321\240\275\023\244x<[\005\313=\346\332\220\275\221d\304\275\267.\361\274X>\204\275\245\234\345=\231\216\226=\233\203\304=U\362C=/L\342\275\364\303\253;\367\211\000>q\034\017\276\277\352\351;\352\377\316\275\245y\223=\270\177B=<\223C\275y\376\203\2757\3607=\333\220\227<\353\"\000\276\025\004o\275c\365\233=W\032\001>+\034;=\321\233\320\275\263,\336=\203{\233=\032\016\"\275\300\204\277=\003\200\240\275\251+\205\273v\n\024\274#s\006\276\373[\001\276v\307\206\275\026Lc\275\321\334\013\275\252h\377=\265!\275\2750}\317<H\207\213\275\264b\226<\346\230\212\275\230\'\243\275\006.L=\342\334\024<\322\027\\\275\247v\244=,\216\275=\321\350\262=\224\023\316=\001/\214<\370\253\013>\3057\330\274\305\344\016>\216\332\251\274\204Z\241=A\272\270\275\030\354\261=\034\222\200\275pr\341=2\206\013\275\244#\013>\364\215\354=D\346\302\275\227<\353\275B\"\363=\2230\213\275e\260\237=\212\277\360\274S\227\016\276\346(\340\275\320\302\376=b\254^\275\2735\352=d\263\021=\023\337\255\275\177k\207\275!\213\371=\212P[\275}\306\277=T\277\343\2745\206p=j\315\367\275\353\240\272=\307\206\307\275x,\214=39\233\275\033M\360\275\254\354y=\tw\346=!\344\367=2w\346\275x\261\246<5\233\346=N5\370\274\344\033\317=c\203\020>r\323\376\275\004\t\301\275\016\316\352<\364\016\210\275B!\344\271\025+\332\275\334\255\003>ij\246=\033\220\037\275\207\267\371\274\026\305\002\276\316\305\212=q\007\337\2752-\347=o\371\312=\345\036\372<ZL\302=\376\202s\275\273G\010\276\210W\205=\035 \013\276g\214\367\275\277\326\327<tP*\275\341\030\250\275k6\224\275)-\316=\210\311a\275t\227\345=U\251\310<\272\031\313\275F\314\006>\277\304\010:k6\333\275\337E\007>\244#\366=\237:I=\230\027B\275\211I\251\275\317\327^=\227\247C\275,\226\334\273o\013\207\273\305\036\211=\214\237\262\275\333:\207\274\314D&=\211\273G=\'\t\266=\221\357\216\275B\314\304=\242p\232<\nB\223=d\035\243=\024\013\245<5\213k=\021\026\001\275\372\t\215=\014.\371;7\021\210\275c\263\347\275\345\245\377\275\317\017\013\276d\305\025=\247\250-\275\010\333\352=g\240\267<r\201\242=\300\230\351<j\206\271\273\262\177\013\276\252a\304<"
      }
    }
  }
}
node {
  name: "fully_connected/weights"
  op: "Variable"
  attr {
    key: "container"
    value {
      s: ""
    }
  }
  attr {
    key: "dtype"
    value {
      type: DT_FLOAT
    }
  }
  attr {
    key: "shape"
    value {
      shape {
        dim {
          size: 8
        }
        dim {
          size: 289
        }
      }
    }
  }
  attr {
    key: "shared_name"
    value {
      s: ""
    }
  }
}
node {
  name: "fully_connected/weights/Assign"
  op: "Assign"
  input: "fully_connected/weights"
  input: "fully_connected/weights/Initializer/Const"
  attr {
    key: "T"
    value {
      type: DT_FLOAT
    }
  }
  attr {
    key: "use_locking"
    value {
      b: true
    }
  }
  attr {
    key: "validate_shape"
    value {
      b: true
    }
  }
}
node {
  name: "fully_connected/weights/read"
  op: "Identity"
  input: "fully_connected/weights"
  attr {
    key: "T"
    value {
      type: DT_FLOAT
    }
  }
}
node {
  name: "fully_connected/MatMul"
  op: "MatMul"
  input: "input"
  input: "fully_connected/weights/read"
  attr {
    key: "T"
    value {
      type: DT_FLOAT
    }
  }
  attr {
    key: "transpose_a"
    value {
      b: false
    }
  }
  attr {
    key: "transpose_b"
    value {
      b: false
    }
  }
}
node {
  name: "fully_connected/bias/Initializer/Const"
  op: "Const"
  attr {
    key: "dtype"
    value {
      type: DT_FLOAT
    }
  }
  attr {
    key: "value"
    value {
      tensor {
        dtype: DT_FLOAT
        tensor_shape {
          dim {
            size: 289
          }
        }
        tensor_content: "\000\000\000\000\000\000\000\000\000\000\000\000\000\000\000\000\000\000\000\000\000\000\000\000\000\000\000\000\000\000\000\000\000\000\000\000\000\000\000\000\000\000\000\000\000\000\000\000\000\000\000\000\000\000\000\000\000\000\000\000\000\000\000\000\000\000\000\000\000\000\000\000\000\000\000\000\000\000\000\000\000\000\000\000\000\000\000\000\000\000\000\000\000\000\000\000\000\000\000\000\000\000\000\000\000\000\000\000\000\000\000\000\000\000\000\000\000\000\000\000\000\000\000\000\000\000\000\000\000\000\000\000\000\000\000\000\000\000\000\000\000\000\000\000\000\000\000\000\000\000\000\000\000\000\000\000\000\000\000\000\000\000\000\000\000\000\000\000\000\000\000\000\000\000\000\000\000\000\000\000\000\000\000\000\000\000\000\000\000\000\000\000\000\000\000\000\000\000\000\000\000\000\000\000\000\000\000\000\000\000\000\000\000\000\000\000\000\000\000\000\000\000\000\000\000\000\000\000\000\000\000\000\000\000\000\000\000\000\000\000\000\000\000\000\000\000\000\000\000\000\000\000\000\000\000\000\000\000\000\000\000\000\000\000\000\000\000\000\000\000\000\000\000\000\000\000\000\000\000\000\000\000\000\000\000\000\000\000\000\000\000\000\000\000\000\000\000\000\000\000\000\000\000\000\000\000\000\000\000\000\000\000\000\000\000\000\000\000\000\000\000\000\000\000\000\000\000\000\000\000\000\000\000\000\000\000\000\000\000\000\000\000\000\000\000\000\000\000\000\000\000\000\000\000\000\000\000\000\000\000\000\000\000\000\000\000\000\000\000\000\000\000\000\000\000\000\000\000\000\000\000\000\000\000\000\000\000\000\000\000\000\000\000\000\000\000\000\000\000\000\000\000\000\000\000\000\000\000\000\000\000\000\000\000\000\000\000\000\000\000\000\000\000\000\000\000\000\000\000\000\000\000\000\000\000\000\000\000\000\000\000\000\000\000\000\000\000\000\000\000\000\000\000\000\000\000\000\000\000\000\000\000\000\000\000\000\000\000\000\000\000\000\000\000\000\000\000\000\000\000\000\000\000\000\000\000\000\000\000\000\000\000\000\000\000\000\000\000\000\000\000\000\000\000\000\000\000\000\000\000\000\000\000\000\000\000\000\000\000\000\000\000\000\000\000\000\000\000\000\000\000\000\000\000\000\000\000\000\000\000\000\000\000\000\000\000\000\000\000\000\000\000\000\000\000\000\000\000\000\000\000\000\000\000\000\000\000\000\000\000\000\000\000\000\000\000\000\000\000\000\000\000\000\000\000\000\000\000\000\000\000\000\000\000\000\000\000\000\000\000\000\000\000\000\000\000\000\000\000\000\000\000\000\000\000\000\000\000\000\000\000\000\000\000\000\000\000\000\000\000\000\000\000\000\000\000\000\000\000\000\000\000\000\000\000\000\000\000\000\000\000\000\000\000\000\000\000\000\000\000\000\000\000\000\000\000\000\000\000\000\000\000\000\000\000\000\000\000\000\000\000\000\000\000\000\000\000\000\000\000\000\000\000\000\000\000\000\000\000\000\000\000\000\000\000\000\000\000\000\000\000\000\000\000\000\000\000\000\000\000\000\000\000\000\000\000\000\000\000\000\000\000\000\000\000\000\000\000\000\000\000\000\000\000\000\000\000\000\000\000\000\000\000\000\000\000\000\000\000\000\000\000\000\000\000\000\000\000\000\000\000\000\000\000\000\000\000\000\000\000\000\000\000\000\000\000\000\000\000\000\000\000\000\000\000\000\000\000\000\000\000\000\000\000\000\000\000\000\000\000\000\000\000\000\000\000\000\000\000\000\000\000\000\000\000\000\000\000\000\000\000\000\000\000\000\000\000\000\000\000\000\000\000\000\000\000\000\000\000\000\000\000\000\000\000\000\000\000\000\000\000\000\000\000\000\000\000\000\000\000\000\000\000\000\000\000\000\000\000\000\000\000\000\000\000\000\000\000\000\000\000\000\000\000\000\000\000\000\000\000\000\000\000\000\000\000\000\000\000\000\000\000\000\000\000\000\000\000\000\000\000\000\000\000\000\000\000\000\000\000\000\000\000\000\000\000\000\000\000\000\000\000\000\000\000\000\000\000\000\000\000\000\000\000\000\000\000\000\000\000\000\000\000\000\000\000\000\000\000\000\000\000\000\000\000\000\000\000\000\000\000\000\000\000\000\000\000\000\000\000\000\000\000\000\000\000\000\000\000\000\000\000\000\000\000\000\000\000\000\000\000\000\000\000\000\000\000\000\000\000\000\000\000\000\000\000\000\000\000\000\000\000\000\000\000\000\000\000\000\000\000\000\000\000\000\000\000\000\000\000\000\000\000\000\000\000\000\000\000\000\000\000\000\000\000\000\000\000\000\000\000\000\000\000\000\000\000\000\000\000\000\000\000\000\000\000\000\000\000\000\000\000\000\000\000\000\000\000\000\000\000\000\000\000\000\000\000\000\000\000\000\000\000\000\000\000\000\000\000\000\000\000\000\000\000\000\000\000\000\000\000\000\000\000\000\000\000\000\000\000\000\000\000\000\000\000\000\000\000\000\000\000\000\000\000\000"
      }
    }
  }
}
node {
  name: "fully_connected/bias"
  op: "Variable"
  attr {
    key: "container"
    value {
      s: ""
    }
  }
  attr {
    key: "dtype"
    value {
      type: DT_FLOAT
    }
  }
  attr {
    key: "shape"
    value {
      shape {
        dim {
          size: 289
        }
      }
    }
  }
  attr {
    key: "shared_name"
    value {
      s: ""
    }
  }
}
node {
  name: "fully_connected/bias/Assign"
  op: "Assign"
  input: "fully_connected/bias"
  input: "fully_connected/bias/Initializer/Const"
  attr {
    key: "T"
    value {
      type: DT_FLOAT
    }
  }
  attr {
    key: "use_locking"
    value {
      b: true
    }
  }
  attr {
    key: "validate_shape"
    value {
      b: true
    }
  }
}
node {
  name: "fully_connected/bias/read"
  op: "Identity"
  input: "fully_connected/bias"
  attr {
    key: "T"
    value {
      type: DT_FLOAT
    }
  }
}
node {
  name: "fully_connected/BiasAdd"
  op: "BiasAdd"
  input: "fully_connected/MatMul"
  input: "fully_connected/bias/read"
  attr {
    key: "T"
    value {
      type: DT_FLOAT
    }
  }
}
node {
  name: "fully_connected/Relu"
  op: "Relu"
  input: "fully_connected/BiasAdd"
  attr {
    key: "T"
    value {
      type: DT_FLOAT
    }
  }
}
node {
  name: "fully_connected_1/weights/Initializer/Const"
  op: "Const"
  attr {
    key: "dtype"
    value {
      type: DT_FLOAT
    }
  }
  attr {
    key: "value"
    value {
      tensor {
        dtype: DT_FLOAT
        tensor_shape {
          dim {
            size: 289
          }
          dim {
            size: 4
          }
        }
        tensor_content: "\177\030\372\275A\356\310=;w\335;:?\312\275V~\021>\215\307\300=\031\255\006>\364\020\003\275\306E\016\276\344r\275=1\205\351\274\253\261\236:O\000\327=\300[U=\337\253\257\275\314h\016\276 \023O=ND\r>\251\200\353=\313\323\311=\237\013\226\275\250\020\367\275p\024\321\272\211\355\376=o\225\016\276\033C\207\2758\002>\275\305\256\242;d#\273=[\200\302\273\325\320t=\324R\253=\326\237\267=\205\033\003\276\3057\211<\332]\274=\202#\356=}\205\315\275\307[\271=\322\265$\275M#\275<-\300N\275b\364\245;\224P\020\2761c&\273\016\273\352\274c\345\243\275/\014\001\276 \267@=\r\232\307=\274\274\005>\26765\274\324\376\314=\327\366\016=\271\240\t\2767\035\341\274\243I\207=a\3546\275\n\377\255=K\251{\275\253\352\002\276\255\321\231=\335\216\316\275\232x\362<\365R\260\275I\323\216=\034\303\361\275\325Y\r>\324Q8\275\001)\270;q\037\"\275\013D\361=?\263\017>\226\321#<\225{\210\274R\025\010>\3253\347\274\350\262\003\276\255\327\203=\r\320\201<\010\024\003;\356\034e\275c\277\336\274X\336\020\276\244\354\374=\330F\257\275\266\203\263=\247\235\263\275}\004\375=\311\025\004\276\"\036h<\314\001M\275\014m\221\274\371IU=F\013\244\275\032\024\201\275\034f\370=\231@\304\275\375R\370<\331T\234\275\355\274\333\275\33633\275\375R\274\275\230\023\000>\n)\230\275g\000\006\276P\210G;\266\340\n>\221\202\200=\230\214\303\275\313\235\247=\251M\351=\003\256\254:\344\263\353:\276\216\360=\301 \320=\311C\205=|lW\275\371c\261<Y\332\312\275\264P\001\276\224\243\003\276K_\212\275\001\013\230\2740\033u=\233[s\274z\374\001>\341\243\331=5\371\375;h\226\007\276}\203>\271\333i$\275D\r\245\275\323P\302=hx\312=\344\302\344\275\227\222\374=-r\256=\037\230z\275ug_=\335\032\234;al\304=\216\203l\273\234\373\264;\t\036L=\022\223\212\275\177_5\275\275\356\266=\002\232\205\275\372!\002>\215\242\004\276\201\266:\275\355\257\224<\342e\216\275\353\205\246\275\2779\230=\311\236\312\274\335\335\243\275\321l\245<\216\317\260=\345\363\000\276\006\213\001=\350[6=\320\354\364\275\350x@\275b\350\235<[\376o=h>\266\275\221\347(=\027z^\273\307;^\275!\237\013\276*B\265;\377l\342=^\227\004\276\265w\267=v\332-=\327\362\246\275\262\352\027<}\331\270=\313\255\177=\374\327\007\276\276r9\274\271G`\275k>\230=L\"\354\275\266=\r=#:\244=\205\362\260\275\202v\001\276\320\216\006=Ho\210=\240\331\312=i~\270\275V\310\000;6\032B\275\212d\007\276\245\"I=K\317\241=\177\244\373\275\233Z]=\032Rj=\202\270\241\275\336dZ=\242.\250=\027\304u=\350\014\362<\351\345A<\371e\232\275\013\no<W\370\325\274\370\215 \274nX\252=\354C\255=A\245\023:\0068\211<\216\331\306=Q\021\006>5}\276=\236\260\014\276e_s=\326F\373\275\354\222\340\274)\210\021>1\016\370\274\200T\353\275\350/8<\226\240%\275\020\201\004=\234<!\275\0074;=\337\3378=\021l\022>\201\300;<\271&\376;\250\222\276\274f\016\210=Q\210\366\275\323F\265\274\272:\340\275kI\260<\224\235\261=\341\310\222=\'\332\n\276\243/\264\275[|i\275g\361]=\374j\234=^=\225=\006U\343\275\005\356D=\005\261\325\275cM==\274eo8\2569\303=\203\020\010\276\032\267\212=\221\t\210\273\222N\022=\202W\261<\300\303Y\275B2\010\276\242Lm=(\274\000\276\016\345\316=\247\013\223=\332\001\001\276\323\320\027\275\021=O\274\353\265\214\275Wc@\274?\221\237=n\'\020\275\363\361I\275\343v\001>\332\021\220=\311:8<h\260\002>\n\207\n>\237G\t\276S\315\003\276\017\255\325<\223\001\251\275\251\357\211\275v\177\243\275y\006\254\275\366r!\274\244\240\333=\033\3441\275B\240\013\276i\242\352\275B\213u=\024\231\017>601\275J\231\332\275\231\207\233\274 \003\366\274Rb\262=\302\016,=\016\245\302=\361\242a=\201\016\236\273\202\003\351=\' \205=v\215\266=\260\215\241\275\222z&=@\357\351=@_\005\276\030O\003\276_\333\305\275\253\3410=\370\"\302=\025\200\215=\177\t\227<\256\226\347\275\3758\265\275\375I\343<v\030\261=hz\260=\204\027?\273J\256\350\275/\207\n\276\237\020/\275\234\270]=\345(\236\275c\006\271<\367\362\002>\322\221\311\275M7\234;\326\000\250\275Z3\223\275\343\367\003>\034\234\354<u\373\016=\312o\257=\243\"\255\275\260\030\347\2755j\226=Lt\030\275I^8\275\377\375\202\275\300\371Z\274\376Au<\322\310c\275\250\211\357\275/h\375\275\312\2371=e\r\354\274\031\273\231\274\233\354(\273\2439\315\275\332\300\354=\004\256\345;\260&\350\275\330$\353\275\301\243\300=:y\371\275B\370+\275b\211q\275\236\201|\275\300\032\211=\304\031d\275\363\265\260=C\354\236\274\251\210\300\275i\242\274=^z\020>K \257< \212\364=\310\324\330\273\212\303\360\275\217\356\016\276\336\344\313\275\023\322\017>\314\375\220\275&\370\266\274yb\360=\n\035\220=\037e@\275\257\264\275=\301G\276=\326J\260=?\237S\272k\255\201;U8\210=\336\226\360\274\360\377\300<\373>\235=\016\032\016\276:\350\313=\03005\275\303\355\320\275^\007\226\274I\203\014\276\272\254e\275\302\201k=\304\025\025=\306&\005\276\026U\214=\325\301\r>\263\307\340\275\363B0<\350\001B=\375\343\014=\224\274#\275\tID=\335e\256=\370\351\212=/\342\265\273\307\340\t>\016\273\\\275\003\261\016\275a\362\212\275\006T\326\275\245\010\254\274\0326u\274\373\360\233=(p\354\275\014\265\200=J@\220=v\000\363\275\004;\323=\324\215\245=[\375^=.\242\220=\303\367\t\275\256\037\005=\031d\013\276\305/\n\276\033\204n=ZJ8=\277\347\240\275\362\037\331<\354+\016>p\270\245=>\221\222=^\010\r=@\031\377;\261X\200\275\272\354\336<\251a\000\274\364\322\377\275\357\267\261\275=5\315\273\030a\004\275e\0106=\ri\274<\262\327\211=\207\344c=++\350\275K\'\370=4\314\r>Nn)<\257\223j=\315_Q;\377?\304\274.\273\023=\376:M\275j\236\321=l\215\257\275#\273\335\275\266\230x\275\255\242\236=\273\340\013>\302U\362\274\300\316x=V{7\275\361\025\244=\'#\346<\222\246\303\274\324\030\366\275\233\311\007>\365\345\364\275\330d\034=\231\237j=]1\254\2742\266}=-\371\010\276\222\207\272=\030\356`\274-\220g\275\r\324\261<E\322\003>UM\034=\336_\204\275\233\234\376=H\355\005\276s\376\325=a\206>=N\353\315\274\361L\276<1\273\235<\340\360\202\275\256\222!\2749%|\275\266\001\r>\264m\245=Zlr=w\231\222\274\222t\356\272\223$v\275\026\220\014\275\031\361\245=F\270\255=\301\307\005=\256\200\346\275\020\317n=\000\213s\275\305x\270\274\0035l\275T\315\360\275S\230\303=\373\330\262\275\022\331K\275\342\201\360\275\315\274\302=\257\261\361;(#\264\275h\272V<\310\304\257<\243\275\211\275\266j\250<B\345\346\275=\212\377=\254\342\017>\270\226\301\274\241\312\206=l~\005=\002v\365=\270\241\213=[\035\340=!(\253<G\025I\275\245/\232\275\210\034\357=\311sY\275\276\276\226\274\345\255\210\275\264\200\242\275bV\346=[M\356\2756{\004\276\274\003\005\276\271%\237<\314\014\227=u\221\377=A]\022>\225\204\236=wP\261\275{.\273=\027/\353;<\026\272\275f\275\017\276\221\023S=\362\006\270=\253D\007>k\016\035\275\327,\000\275\325\024\n\275\217\004\215\274\036\262\314=\376\021+=y\306\377=\007g\325\274\032{\020>\321^\016>\374Am\275Fq\354\275\025\036\016>K\273\026=\341\261\346\275w\330\006<\266E\007>\370\327\021\276\3307\254=\3361\212\275\302M\250=\006\005\342\274\263\370\260\275l1\227=\002F\001\276\227\350\251\275;\017\332=\355\251/=\010\251\242\275K?\367=J|3\275\323NU=\232?o<\322\341\313=\024\305\312=!\350\223=\307\331\335<OJ\237=\303\334\232\275\222\212\356=3\002\213\274\232,-=\323\347\312=^o\003\275j\201\276\275e\207\263<\301\333U\275\207{4<\202\035\377\275\365w\000;\373\030g\275D\203\271\275\220\303\340<\356O\326\275c\264\252=*\022>\275\366\034\311=I\337\365=\326\271\372=\231\316\365=l\253\347\274n&\343=\230z\022=n\273\002=m\322\305=&u\343=\022\321\002\276\021\307\r>f\362\003\276-u\035\275\010T\346\275W\224\n\273\200j\343\275!PV=!\026\354=\263\360N=\377\333\361=US\003>C5\205\275\201>\260=\027\334%<C[\233=\030\227\345=\2417I\275\203\343\274<!%\003>\361\367\304\274\356\220\354=0!\236=X.\006>\001B`\275\274\337\365;\224\352\254=b\220\361=AZ\002\276\225W\242\275\207\016\306\273\361\256\005\276\327\374\233:\343\206\271<\352\005\006>\312\363\217;?Ki\275\355=\020\275\002=\264=\306Z\252=\317Y\326\275\350Z\006<\'\305\247=\362\377O= @!=\200V\000=\010I\306\275\213\226\000\275.?\000\276\262\325\267\274\340h\345\275\014c\204\275\327\343\020\276\373\243\247\275\030~\250=\013L\201\275\305.\200=\363M\267\274\3227\333\273Dc\353\272J;r\273\237#M<\006\316\024\275\r\224\204;\343\207;<\216\213\351=N\n\251\275\201I\202=\027J\r>\361\356\302\275\212\351\311=\325<\251\275\247>p\275N\353\214;\027\204\367=L,\004\276\273\216\356\2750dJ\275\237\335\373=\213N\314;\273\323\335\275E\3731\274v\202\347\275\367\304\211\275\002\212\237=\224\375\237\275\006\356\347<&\344.=$\212\356<\002o\354\275b\357\242<\006\373y<\246\317t=k\035\207\275\\\2532\275D\317\373<gt\361\275}\227\322\273s\347\341\273[(\032\275\177\021\200=|\035A=Zf\003\276\355 Q=6\206z:\345>\007>\274-\276\275\202\337\361\275\261\274,\274\214\357\316<\351g\227=\2329\035\275\255\253i\2751R4=\256\332\273<K/B=P\030\231\274.\345k=`\201\037\275\021\252\367;V\202\"\274Kr\224=\336,\263=\202\270\360=\023B\305\275\311\261@\275\323\351x=\201\370\r>uNi\273\263\220\336=\267G\347<YoR\274\n\223u\275\234u\217;t\265\342\275\307P\255=\030\337\362\2750\253\013\276\357\371\273\275\233o\243\275\371m\346=\246\237\001=\225\316\343=Zt\362=\215\213\233\275\255\300\302\275\r\255\225\274\016m\021\275\321OA=\217\314\342=\266\327\005\276\336\000\335\275\324j\231;\370d\342\275i/{\275+0\367=p\374\330\274\243>\246=\202\345\331\274\360\000\372\274\035\310q\275\2357\n\2769\222i\274e\244\007\276\020\r7=\215\'\266=\274t4=t!\254\275\030(\n\276^\345\212\275Env<\315,\373\275\034\002\353;\201\377\265=\313\240\334\274\275\r\366<w\016\000>\313\221\367=Lu\230\275\001S~\275\204\367O\275&\013\271=\372x,\275\2569\251=:\230\010=W\360 =lU\347=\027\311\223=\204F\002>\204N\266=\240\264\320<\034\240|\275RD\322\275\'\205\324\275v\230\005\275\206\357$\274\354\276\025\275#^\210\275\n\343\300\275\336\217\214\274\307`\351\275\313_\370\273p\275\351;\022\376\031\274\023\262k<\0170/=\004\371\020=C\353\356<j\366\377\275\344\271x=\035\241\233;\220^\372\2752\252@=\235\350\327=\022b#\275fT\007>\375F\242\274\260\335^=\350\375\037\275\273D\244\275\254\261\361\275\214\r\006<\267\336\201\275?R\220\275f)\202=\206\201\267\274\024c\005\275\\\261\265\275C\325\233=\247A\246\275\321SH\273\260\351\322=\227\024\345<k+\017>\213\301A=\006c\027\275\370U\302\274\017\207\306=\025\344\037\2752K\r>\264+\350=#^\363=%l\324\274\0229\237\275:\204\t\275e\335\202<\013v\370=\263\2154=\312\217\201\274j\242\210;\235\374\225\274\233\264\310=-\232x\274\303L\262\2742\352\250=l\337\236<R5\366=#)\226\275\020\357\304=$(:\274f&\231=\303^\350\275z\216\302=\017\300\240=\356d\265<\023\356^\275\336#_\275`\257\342\275\323\020\013\275\365\252\013>w\003\036\275\260\025\300\2744\006>=,\360\210=\027\005\262\275\247\027\205=\315=\r\276\336\017a\275\303\212\033=\rb\232=\212\315\004>\315\342\020\274r\244\325\273\n\344Y\274I\223@=\320k\010\276\231\234\374\274\377\273\026\275\2478\001>Wr\243\274\030d\221\274\205,\036\274\230\327\\=\251\225\264=\036\247]=\224(\220\275\221\257\322\275\300\376\n\276\346\334\364\275\303\241\336\274,\213\303=\030\216\355\273\021\363\177\275\270\347\231=\276A\303\275\351\203\236\274\206\254\234=\177\007\276\274Ef\244\275C\243\010\276\303\036\202;\002`\261\2738g\024\275\234\336\342\273\207]\003>\"\037V=*\232\347<\241\273\336\275g\347\325\275y\235\002>\274y\037\274\'\231\204\274\305\3063<\231\210\250<\022\341g\273\2752V\275c\036\276\275St\002\276?,*\275\266K\275=\256\374M\274\343\322\211=\274\315\305<,\177\331=\254\016\344\275\243e\312=\374\033\t\276\020\210\014=\300\314\323=\000\0368=L;\330=\351\341\345=;J\202;\nD\007=\034c\317\275\226\263\013>8W\270<]\3526\275\360\222\232\275\207\252\245=\310\317\352\275\004\360\352=\r\306\007>ca\215:\214\032\357\275\204Y\322=\"+\016>(\372\n\276\201\027\001=\026\217\275=\034\360J=d\334&\275`J\277=\365\206\203=\330\304\376<\032\310\344=\313\320n\275\022\010\365=\3072\002\276\"z\022>3Y\304=\373\265\346;\237h\010>\024A\250\275\303T\037=\267T\370\275*\352\243\275\366\204\331\275\375\250\201\275\355\221\016\275\201\223\001\276e\223\310=0h\253=.\224\262=\264\373H\274u\312\332\275\2321\206=\2218\231=\002\304\206=\3369\221\275k^S\275v\344]\275\374\322\333\2750\366\371\275\346\353\273\275w\301\211=\013\346\326\275e\347\325\274\364|G=\253\357\324=V\244\224<\271s\276\275\271pU\275i\001\311\273~\004\014\276E:{\275\250\014\363=o\022f=\353\036\n<\350\335b\274/h\031=\313\232\316=\347R\031=\310\202\367=\3568\325\275\023\347\377=\230\255\341\275\3659[\274\300\001\013\275#\034\022>_S\321=~\237\267\275\203=\206\275\201\201\366=\353\254\356\275\302\366a\274\251\036\213\275K\345\254\274\222\252\001\276e\326=\275w&\270\275\tw6=sR\005\276\377?\325\273\312R\310\274+\207\023\275\016Mi=\261\255k\275*\336\321<RW\261\275\256.\370=\337\355\301\275W\367\350=\340m\005\276\320RC=\343\201\016\275m\325\006\276\250\256w\275A\re=2\014\022=\2377\254;\365\257Y<\0315\354<\221\342\225\275g\026\354=,\370\204\275\220~\007\276pS\355=\364W\376\275\324o<\275gb$\275\\(\260<k\036\321=\343\325C=\331\215\224=\317\225P\274~\247\000\274\035\333\'=\241~\000\276\022L-=d?\260\274\000C\204=\334\251W=F<\242<\262*J\275\014\343\312=Fh9=\177\212\014>\027\225\343\275\316?U=\020\370\313\275X\343\331\275\006q\230=y\340\035\274-KP\275\277\257\376=\230j\200=)\361y\273\014\371C=r0\275\275\315H\252\275}\372f<B$\203\274E\\\252\275\035\225\261=[\207\332\275l\030\217\275nn~=(\023!\275p\202\007>\365\370A=\371\356\271=\234\260\300=T\301Q=\034$?\275\200\245\227=\261\033\342\275\356\264\240=\317\225\025\275\350s1<\203\316\357\274\340\002\327=2\335\010>L;$\275L\314\342=\t\013\021\276<\212M=V@\017\276\307\271\342\275\312\260\210<+6\377=\231\334[;L\222\207=\024\225\206\275\213n\007>\227\217\227=\237A/\275bS2=\224B\222\275\260X\363\275\202Z\330\275oU\000\276f\353\306\273"
      }
    }
  }
}
node {
  name: "fully_connected_1/weights"
  op: "Variable"
  attr {
    key: "container"
    value {
      s: ""
    }
  }
  attr {
    key: "dtype"
    value {
      type: DT_FLOAT
    }
  }
  attr {
    key: "shape"
    value {
      shape {
        dim {
          size: 289
        }
        dim {
          size: 4
        }
      }
    }
  }
  attr {
    key: "shared_name"
    value {
      s: ""
    }
  }
}
node {
  name: "fully_connected_1/weights/Assign"
  op: "Assign"
  input: "fully_connected_1/weights"
  input: "fully_connected_1/weights/Initializer/Const"
  attr {
    key: "T"
    value {
      type: DT_FLOAT
    }
  }
  attr {
    key: "use_locking"
    value {
      b: true
    }
  }
  attr {
    key: "validate_shape"
    value {
      b: true
    }
  }
}
node {
  name: "fully_connected_1/weights/read"
  op: "Identity"
  input: "fully_connected_1/weights"
  attr {
    key: "T"
    value {
      type: DT_FLOAT
    }
  }
}
node {
  name: "fully_connected_1/MatMul"
  op: "MatMul"
  input: "fully_connected/Relu"
  input: "fully_connected_1/weights/read"
  attr {
    key: "T"
    value {
      type: DT_FLOAT
    }
  }
  attr {
    key: "transpose_a"
    value {
      b: false
    }
  }
  attr {
    key: "transpose_b"
    value {
      b: false
    }
  }
}
node {
  name: "fully_connected_1/bias/Initializer/Const"
  op: "Const"
  attr {
    key: "dtype"
    value {
      type: DT_FLOAT
    }
  }
  attr {
    key: "value"
    value {
      tensor {
        dtype: DT_FLOAT
        tensor_shape {
          dim {
            size: 4
          }
        }
        tensor_content: "\000\000\000\000\000\000\000\000\000\000\000\000\000\000\000\000"
      }
    }
  }
}
node {
  name: "fully_connected_1/bias"
  op: "Variable"
  attr {
    key: "container"
    value {
      s: ""
    }
  }
  attr {
    key: "dtype"
    value {
      type: DT_FLOAT
    }
  }
  attr {
    key: "shape"
    value {
      shape {
        dim {
          size: 4
        }
      }
    }
  }
  attr {
    key: "shared_name"
    value {
      s: ""
    }
  }
}
node {
  name: "fully_connected_1/bias/Assign"
  op: "Assign"
  input: "fully_connected_1/bias"
  input: "fully_connected_1/bias/Initializer/Const"
  attr {
    key: "T"
    value {
      type: DT_FLOAT
    }
  }
  attr {
    key: "use_locking"
    value {
      b: true
    }
  }
  attr {
    key: "validate_shape"
    value {
      b: true
    }
  }
}
node {
  name: "fully_connected_1/bias/read"
  op: "Identity"
  input: "fully_connected_1/bias"
  attr {
    key: "T"
    value {
      type: DT_FLOAT
    }
  }
}
node {
  name: "fully_connected_1/BiasAdd"
  op: "BiasAdd"
  input: "fully_connected_1/MatMul"
  input: "fully_connected_1/bias/read"
  attr {
    key: "T"
    value {
      type: DT_FLOAT
    }
  }
}
node {
  name: "linear_regression/HistogramSummary/tag"
  op: "Const"
  attr {
    key: "dtype"
    value {
      type: DT_STRING
    }
  }
  attr {
    key: "value"
    value {
      tensor {
        dtype: DT_STRING
        tensor_shape {
        }
        string_val: "linear_regression.X"
      }
    }
  }
}
node {
  name: "linear_regression/HistogramSummary"
  op: "HistogramSummary"
  input: "linear_regression/HistogramSummary/tag"
  input: "fully_connected_1/BiasAdd"
  attr {
    key: "T"
    value {
      type: DT_FLOAT
    }
  }
}
node {
  name: "linear_regression/HistogramSummary_1/tag"
  op: "Const"
  attr {
    key: "dtype"
    value {
      type: DT_STRING
    }
  }
  attr {
    key: "value"
    value {
      tensor {
        dtype: DT_STRING
        tensor_shape {
        }
        string_val: "linear_regression.y"
      }
    }
  }
}
node {
  name: "linear_regression/HistogramSummary_1"
  op: "HistogramSummary"
  input: "linear_regression/HistogramSummary_1/tag"
  input: "output"
  attr {
    key: "T"
    value {
      type: DT_FLOAT
    }
  }
}
node {
  name: "linear_regression/weights/Initializer/random_uniform/shape"
  op: "Const"
  attr {
    key: "dtype"
    value {
      type: DT_INT32
    }
  }
  attr {
    key: "value"
    value {
      tensor {
        dtype: DT_INT32
        tensor_shape {
          dim {
            size: 2
          }
        }
        tensor_content: "\004\000\000\000\004\000\000\000"
      }
    }
  }
}
node {
  name: "linear_regression/weights/Initializer/random_uniform/min"
  op: "Const"
  attr {
    key: "dtype"
    value {
      type: DT_FLOAT
    }
  }
  attr {
    key: "value"
    value {
      tensor {
        dtype: DT_FLOAT
        tensor_shape {
        }
        float_val: -0.866025388241
      }
    }
  }
}
node {
  name: "linear_regression/weights/Initializer/random_uniform/max"
  op: "Const"
  attr {
    key: "dtype"
    value {
      type: DT_FLOAT
    }
  }
  attr {
    key: "value"
    value {
      tensor {
        dtype: DT_FLOAT
        tensor_shape {
        }
        float_val: 0.866025388241
      }
    }
  }
}
node {
  name: "linear_regression/weights/Initializer/random_uniform/RandomUniform"
  op: "RandomUniform"
  input: "linear_regression/weights/Initializer/random_uniform/shape"
  attr {
    key: "T"
    value {
      type: DT_INT32
    }
  }
  attr {
    key: "dtype"
    value {
      type: DT_FLOAT
    }
  }
  attr {
    key: "seed"
    value {
      i: 42
    }
  }
  attr {
    key: "seed2"
    value {
      i: 38
    }
  }
}
node {
  name: "linear_regression/weights/Initializer/random_uniform/sub"
  op: "Sub"
  input: "linear_regression/weights/Initializer/random_uniform/max"
  input: "linear_regression/weights/Initializer/random_uniform/min"
  attr {
    key: "T"
    value {
      type: DT_FLOAT
    }
  }
}
node {
  name: "linear_regression/weights/Initializer/random_uniform/mul"
  op: "Mul"
  input: "linear_regression/weights/Initializer/random_uniform/RandomUniform"
  input: "linear_regression/weights/Initializer/random_uniform/sub"
  attr {
    key: "T"
    value {
      type: DT_FLOAT
    }
  }
}
node {
  name: "linear_regression/weights/Initializer/random_uniform"
  op: "Add"
  input: "linear_regression/weights/Initializer/random_uniform/mul"
  input: "linear_regression/weights/Initializer/random_uniform/min"
  attr {
    key: "T"
    value {
      type: DT_FLOAT
    }
  }
}
node {
  name: "linear_regression/weights"
  op: "Variable"
  attr {
    key: "container"
    value {
      s: ""
    }
  }
  attr {
    key: "dtype"
    value {
      type: DT_FLOAT
    }
  }
  attr {
    key: "shape"
    value {
      shape {
        dim {
          size: 4
        }
        dim {
          size: 4
        }
      }
    }
  }
  attr {
    key: "shared_name"
    value {
      s: ""
    }
  }
}
node {
  name: "linear_regression/weights/Assign"
  op: "Assign"
  input: "linear_regression/weights"
  input: "linear_regression/weights/Initializer/random_uniform"
  attr {
    key: "T"
    value {
      type: DT_FLOAT
    }
  }
  attr {
    key: "use_locking"
    value {
      b: true
    }
  }
  attr {
    key: "validate_shape"
    value {
      b: true
    }
  }
}
node {
  name: "linear_regression/weights/read"
  op: "Identity"
  input: "linear_regression/weights"
  attr {
    key: "T"
    value {
      type: DT_FLOAT
    }
  }
}
node {
  name: "linear_regression/bias/Initializer/random_uniform/shape"
  op: "Const"
  attr {
    key: "dtype"
    value {
      type: DT_INT32
    }
  }
  attr {
    key: "value"
    value {
      tensor {
        dtype: DT_INT32
        tensor_shape {
          dim {
            size: 1
          }
        }
        int_val: 4
      }
    }
  }
}
node {
  name: "linear_regression/bias/Initializer/random_uniform/min"
  op: "Const"
  attr {
    key: "dtype"
    value {
      type: DT_FLOAT
    }
  }
  attr {
    key: "value"
    value {
      tensor {
        dtype: DT_FLOAT
        tensor_shape {
        }
        float_val: -1.73205077648
      }
    }
  }
}
node {
  name: "linear_regression/bias/Initializer/random_uniform/max"
  op: "Const"
  attr {
    key: "dtype"
    value {
      type: DT_FLOAT
    }
  }
  attr {
    key: "value"
    value {
      tensor {
        dtype: DT_FLOAT
        tensor_shape {
        }
        float_val: 1.73205077648
      }
    }
  }
}
node {
  name: "linear_regression/bias/Initializer/random_uniform/RandomUniform"
  op: "RandomUniform"
  input: "linear_regression/bias/Initializer/random_uniform/shape"
  attr {
    key: "T"
    value {
      type: DT_INT32
    }
  }
  attr {
    key: "dtype"
    value {
      type: DT_FLOAT
    }
  }
  attr {
    key: "seed"
    value {
      i: 42
    }
  }
  attr {
    key: "seed2"
    value {
      i: 48
    }
  }
}
node {
  name: "linear_regression/bias/Initializer/random_uniform/sub"
  op: "Sub"
  input: "linear_regression/bias/Initializer/random_uniform/max"
  input: "linear_regression/bias/Initializer/random_uniform/min"
  attr {
    key: "T"
    value {
      type: DT_FLOAT
    }
  }
}
node {
  name: "linear_regression/bias/Initializer/random_uniform/mul"
  op: "Mul"
  input: "linear_regression/bias/Initializer/random_uniform/RandomUniform"
  input: "linear_regression/bias/Initializer/random_uniform/sub"
  attr {
    key: "T"
    value {
      type: DT_FLOAT
    }
  }
}
node {
  name: "linear_regression/bias/Initializer/random_uniform"
  op: "Add"
  input: "linear_regression/bias/Initializer/random_uniform/mul"
  input: "linear_regression/bias/Initializer/random_uniform/min"
  attr {
    key: "T"
    value {
      type: DT_FLOAT
    }
  }
}
node {
  name: "linear_regression/bias"
  op: "Variable"
  attr {
    key: "container"
    value {
      s: ""
    }
  }
  attr {
    key: "dtype"
    value {
      type: DT_FLOAT
    }
  }
  attr {
    key: "shape"
    value {
      shape {
        dim {
          size: 4
        }
      }
    }
  }
  attr {
    key: "shared_name"
    value {
      s: ""
    }
  }
}
node {
  name: "linear_regression/bias/Assign"
  op: "Assign"
  input: "linear_regression/bias"
  input: "linear_regression/bias/Initializer/random_uniform"
  attr {
    key: "T"
    value {
      type: DT_FLOAT
    }
  }
  attr {
    key: "use_locking"
    value {
      b: true
    }
  }
  attr {
    key: "validate_shape"
    value {
      b: true
    }
  }
}
node {
  name: "linear_regression/bias/read"
  op: "Identity"
  input: "linear_regression/bias"
  attr {
    key: "T"
    value {
      type: DT_FLOAT
    }
  }
}
node {
  name: "linear_regression/HistogramSummary_2/tag"
  op: "Const"
  attr {
    key: "dtype"
    value {
      type: DT_STRING
    }
  }
  attr {
    key: "value"
    value {
      tensor {
        dtype: DT_STRING
        tensor_shape {
        }
        string_val: "linear_regression.weights"
      }
    }
  }
}
node {
  name: "linear_regression/HistogramSummary_2"
  op: "HistogramSummary"
  input: "linear_regression/HistogramSummary_2/tag"
  input: "linear_regression/weights/read"
  attr {
    key: "T"
    value {
      type: DT_FLOAT
    }
  }
}
node {
  name: "linear_regression/HistogramSummary_3/tag"
  op: "Const"
  attr {
    key: "dtype"
    value {
      type: DT_STRING
    }
  }
  attr {
    key: "value"
    value {
      tensor {
        dtype: DT_STRING
        tensor_shape {
        }
        string_val: "linear_regression.bias"
      }
    }
  }
}
node {
  name: "linear_regression/HistogramSummary_3"
  op: "HistogramSummary"
  input: "linear_regression/HistogramSummary_3/tag"
  input: "linear_regression/bias/read"
  attr {
    key: "T"
    value {
      type: DT_FLOAT
    }
  }
}
node {
  name: "linear_regression/mean_squared_error_regressor/xw_plus_b/MatMul"
  op: "MatMul"
  input: "fully_connected_1/BiasAdd"
  input: "linear_regression/weights/read"
  attr {
    key: "T"
    value {
      type: DT_FLOAT
    }
  }
  attr {
    key: "transpose_a"
    value {
      b: false
    }
  }
  attr {
    key: "transpose_b"
    value {
      b: false
    }
  }
}
node {
  name: "linear_regression/mean_squared_error_regressor/xw_plus_b"
  op: "BiasAdd"
  input: "linear_regression/mean_squared_error_regressor/xw_plus_b/MatMul"
  input: "linear_regression/bias/read"
  attr {
    key: "T"
    value {
      type: DT_FLOAT
    }
  }
}
node {
  name: "linear_regression/mean_squared_error_regressor/sub"
  op: "Sub"
  input: "output"
  input: "linear_regression/mean_squared_error_regressor/xw_plus_b"
  attr {
    key: "T"
    value {
      type: DT_FLOAT
    }
  }
}
node {
  name: "linear_regression/mean_squared_error_regressor/Mul"
  op: "Mul"
  input: "linear_regression/mean_squared_error_regressor/sub"
  input: "linear_regression/mean_squared_error_regressor/sub"
  attr {
    key: "T"
    value {
      type: DT_FLOAT
    }
  }
}
node {
  name: "linear_regression/mean_squared_error_regressor/Rank"
  op: "Rank"
  input: "linear_regression/mean_squared_error_regressor/Mul"
  attr {
    key: "T"
    value {
      type: DT_FLOAT
    }
  }
}
node {
  name: "linear_regression/mean_squared_error_regressor/range/start"
  op: "Const"
  attr {
    key: "dtype"
    value {
      type: DT_INT32
    }
  }
  attr {
    key: "value"
    value {
      tensor {
        dtype: DT_INT32
        tensor_shape {
        }
        int_val: 0
      }
    }
  }
}
node {
  name: "linear_regression/mean_squared_error_regressor/range/delta"
  op: "Const"
  attr {
    key: "dtype"
    value {
      type: DT_INT32
    }
  }
  attr {
    key: "value"
    value {
      tensor {
        dtype: DT_INT32
        tensor_shape {
        }
        int_val: 1
      }
    }
  }
}
node {
  name: "linear_regression/mean_squared_error_regressor/range"
  op: "Range"
  input: "linear_regression/mean_squared_error_regressor/range/start"
  input: "linear_regression/mean_squared_error_regressor/Rank"
  input: "linear_regression/mean_squared_error_regressor/range/delta"
}
node {
  name: "linear_regression/mean_squared_error_regressor/Mean"
  op: "Mean"
  input: "linear_regression/mean_squared_error_regressor/Mul"
  input: "linear_regression/mean_squared_error_regressor/range"
  attr {
    key: "T"
    value {
      type: DT_FLOAT
    }
  }
  attr {
    key: "keep_dims"
    value {
      b: false
    }
  }
}
node {
  name: "ScalarSummary/tags"
  op: "Const"
  attr {
    key: "dtype"
    value {
      type: DT_STRING
    }
  }
  attr {
    key: "value"
    value {
      tensor {
        dtype: DT_STRING
        tensor_shape {
        }
        string_val: "loss"
      }
    }
  }
}
node {
  name: "ScalarSummary"
  op: "ScalarSummary"
  input: "ScalarSummary/tags"
  input: "linear_regression/mean_squared_error_regressor/Mean"
  attr {
    key: "T"
    value {
      type: DT_FLOAT
    }
  }
}
node {
  name: "MergeSummary/MergeSummary"
  op: "MergeSummary"
  input: "HistogramSummary"
  input: "HistogramSummary_1"
  input: "linear_regression/HistogramSummary"
  input: "linear_regression/HistogramSummary_1"
  input: "linear_regression/HistogramSummary_2"
  input: "linear_regression/HistogramSummary_3"
  input: "ScalarSummary"
  attr {
    key: "N"
    value {
      i: 7
    }
  }
}
node {
  name: "learning_rate/Initializer/Const"
  op: "Const"
  attr {
    key: "dtype"
    value {
      type: DT_FLOAT
    }
  }
  attr {
    key: "value"
    value {
      tensor {
        dtype: DT_FLOAT
        tensor_shape {
        }
        float_val: 0.10000000149
      }
    }
  }
}
node {
  name: "learning_rate"
  op: "Variable"
  attr {
    key: "container"
    value {
      s: ""
    }
  }
  attr {
    key: "dtype"
    value {
      type: DT_FLOAT
    }
  }
  attr {
    key: "shape"
    value {
      shape {
      }
    }
  }
  attr {
    key: "shared_name"
    value {
      s: ""
    }
  }
}
node {
  name: "learning_rate/Assign"
  op: "Assign"
  input: "learning_rate"
  input: "learning_rate/Initializer/Const"
  attr {
    key: "T"
    value {
      type: DT_FLOAT
    }
  }
  attr {
    key: "use_locking"
    value {
      b: true
    }
  }
  attr {
    key: "validate_shape"
    value {
      b: true
    }
  }
}
node {
  name: "learning_rate/read"
  op: "Identity"
  input: "learning_rate"
  attr {
    key: "T"
    value {
      type: DT_FLOAT
    }
  }
}
node {
  name: "gradients/Shape"
  op: "Shape"
  input: "linear_regression/mean_squared_error_regressor/Mean"
  attr {
    key: "T"
    value {
      type: DT_FLOAT
    }
  }
}
node {
  name: "gradients/Const"
  op: "Const"
  attr {
    key: "dtype"
    value {
      type: DT_FLOAT
    }
  }
  attr {
    key: "value"
    value {
      tensor {
        dtype: DT_FLOAT
        tensor_shape {
        }
        float_val: 1.0
      }
    }
  }
}
node {
  name: "gradients/Fill"
  op: "Fill"
  input: "gradients/Shape"
  input: "gradients/Const"
  attr {
    key: "T"
    value {
      type: DT_FLOAT
    }
  }
}
node {
  name: "gradients/linear_regression/mean_squared_error_regressor/Mean_grad/Shape"
  op: "Shape"
  input: "linear_regression/mean_squared_error_regressor/Mul"
  attr {
    key: "T"
    value {
      type: DT_FLOAT
    }
  }
}
node {
  name: "gradients/linear_regression/mean_squared_error_regressor/Mean_grad/Rank"
  op: "Rank"
  input: "linear_regression/mean_squared_error_regressor/Mul"
  attr {
    key: "T"
    value {
      type: DT_FLOAT
    }
  }
}
node {
  name: "gradients/linear_regression/mean_squared_error_regressor/Mean_grad/Shape_1"
  op: "Shape"
  input: "linear_regression/mean_squared_error_regressor/range"
  attr {
    key: "T"
    value {
      type: DT_INT32
    }
  }
}
node {
  name: "gradients/linear_regression/mean_squared_error_regressor/Mean_grad/range/start"
  op: "Const"
  attr {
    key: "dtype"
    value {
      type: DT_INT32
    }
  }
  attr {
    key: "value"
    value {
      tensor {
        dtype: DT_INT32
        tensor_shape {
        }
        int_val: 0
      }
    }
  }
}
node {
  name: "gradients/linear_regression/mean_squared_error_regressor/Mean_grad/range/delta"
  op: "Const"
  attr {
    key: "dtype"
    value {
      type: DT_INT32
    }
  }
  attr {
    key: "value"
    value {
      tensor {
        dtype: DT_INT32
        tensor_shape {
        }
        int_val: 1
      }
    }
  }
}
node {
  name: "gradients/linear_regression/mean_squared_error_regressor/Mean_grad/range"
  op: "Range"
  input: "gradients/linear_regression/mean_squared_error_regressor/Mean_grad/range/start"
  input: "gradients/linear_regression/mean_squared_error_regressor/Mean_grad/Rank"
  input: "gradients/linear_regression/mean_squared_error_regressor/Mean_grad/range/delta"
}
node {
  name: "gradients/linear_regression/mean_squared_error_regressor/Mean_grad/Fill/value"
  op: "Const"
  attr {
    key: "dtype"
    value {
      type: DT_INT32
    }
  }
  attr {
    key: "value"
    value {
      tensor {
        dtype: DT_INT32
        tensor_shape {
        }
        int_val: 1
      }
    }
  }
}
node {
  name: "gradients/linear_regression/mean_squared_error_regressor/Mean_grad/Fill"
  op: "Fill"
  input: "gradients/linear_regression/mean_squared_error_regressor/Mean_grad/Shape_1"
  input: "gradients/linear_regression/mean_squared_error_regressor/Mean_grad/Fill/value"
  attr {
    key: "T"
    value {
      type: DT_INT32
    }
  }
}
node {
  name: "gradients/linear_regression/mean_squared_error_regressor/Mean_grad/DynamicStitch"
  op: "DynamicStitch"
  input: "gradients/linear_regression/mean_squared_error_regressor/Mean_grad/range"
  input: "linear_regression/mean_squared_error_regressor/range"
  input: "gradients/linear_regression/mean_squared_error_regressor/Mean_grad/Shape"
  input: "gradients/linear_regression/mean_squared_error_regressor/Mean_grad/Fill"
  attr {
    key: "N"
    value {
      i: 2
    }
  }
  attr {
    key: "T"
    value {
      type: DT_INT32
    }
  }
}
node {
  name: "gradients/linear_regression/mean_squared_error_regressor/Mean_grad/floordiv"
  op: "Div"
  input: "gradients/linear_regression/mean_squared_error_regressor/Mean_grad/Shape"
  input: "gradients/linear_regression/mean_squared_error_regressor/Mean_grad/DynamicStitch"
  attr {
    key: "T"
    value {
      type: DT_INT32
    }
  }
}
node {
  name: "gradients/linear_regression/mean_squared_error_regressor/Mean_grad/Reshape"
  op: "Reshape"
  input: "gradients/Fill"
  input: "gradients/linear_regression/mean_squared_error_regressor/Mean_grad/DynamicStitch"
  attr {
    key: "T"
    value {
      type: DT_FLOAT
    }
  }
}
node {
  name: "gradients/linear_regression/mean_squared_error_regressor/Mean_grad/Tile"
  op: "Tile"
  input: "gradients/linear_regression/mean_squared_error_regressor/Mean_grad/Reshape"
  input: "gradients/linear_regression/mean_squared_error_regressor/Mean_grad/floordiv"
  attr {
    key: "T"
    value {
      type: DT_FLOAT
    }
  }
}
node {
  name: "gradients/linear_regression/mean_squared_error_regressor/Mean_grad/Shape_2"
  op: "Shape"
  input: "linear_regression/mean_squared_error_regressor/Mul"
  attr {
    key: "T"
    value {
      type: DT_FLOAT
    }
  }
}
node {
  name: "gradients/linear_regression/mean_squared_error_regressor/Mean_grad/Shape_3"
  op: "Shape"
  input: "linear_regression/mean_squared_error_regressor/Mean"
  attr {
    key: "T"
    value {
      type: DT_FLOAT
    }
  }
}
node {
  name: "gradients/linear_regression/mean_squared_error_regressor/Mean_grad/Rank_1"
  op: "Rank"
  input: "gradients/linear_regression/mean_squared_error_regressor/Mean_grad/Shape_2"
  attr {
    key: "T"
    value {
      type: DT_INT32
    }
  }
}
node {
  name: "gradients/linear_regression/mean_squared_error_regressor/Mean_grad/range_1/start"
  op: "Const"
  attr {
    key: "dtype"
    value {
      type: DT_INT32
    }
  }
  attr {
    key: "value"
    value {
      tensor {
        dtype: DT_INT32
        tensor_shape {
        }
        int_val: 0
      }
    }
  }
}
node {
  name: "gradients/linear_regression/mean_squared_error_regressor/Mean_grad/range_1/delta"
  op: "Const"
  attr {
    key: "dtype"
    value {
      type: DT_INT32
    }
  }
  attr {
    key: "value"
    value {
      tensor {
        dtype: DT_INT32
        tensor_shape {
        }
        int_val: 1
      }
    }
  }
}
node {
  name: "gradients/linear_regression/mean_squared_error_regressor/Mean_grad/range_1"
  op: "Range"
  input: "gradients/linear_regression/mean_squared_error_regressor/Mean_grad/range_1/start"
  input: "gradients/linear_regression/mean_squared_error_regressor/Mean_grad/Rank_1"
  input: "gradients/linear_regression/mean_squared_error_regressor/Mean_grad/range_1/delta"
}
node {
  name: "gradients/linear_regression/mean_squared_error_regressor/Mean_grad/Prod"
  op: "Prod"
  input: "gradients/linear_regression/mean_squared_error_regressor/Mean_grad/Shape_2"
  input: "gradients/linear_regression/mean_squared_error_regressor/Mean_grad/range_1"
  attr {
    key: "T"
    value {
      type: DT_INT32
    }
  }
  attr {
    key: "keep_dims"
    value {
      b: false
    }
  }
}
node {
  name: "gradients/linear_regression/mean_squared_error_regressor/Mean_grad/Rank_2"
  op: "Rank"
  input: "gradients/linear_regression/mean_squared_error_regressor/Mean_grad/Shape_3"
  attr {
    key: "T"
    value {
      type: DT_INT32
    }
  }
}
node {
  name: "gradients/linear_regression/mean_squared_error_regressor/Mean_grad/range_2/start"
  op: "Const"
  attr {
    key: "dtype"
    value {
      type: DT_INT32
    }
  }
  attr {
    key: "value"
    value {
      tensor {
        dtype: DT_INT32
        tensor_shape {
        }
        int_val: 0
      }
    }
  }
}
node {
  name: "gradients/linear_regression/mean_squared_error_regressor/Mean_grad/range_2/delta"
  op: "Const"
  attr {
    key: "dtype"
    value {
      type: DT_INT32
    }
  }
  attr {
    key: "value"
    value {
      tensor {
        dtype: DT_INT32
        tensor_shape {
        }
        int_val: 1
      }
    }
  }
}
node {
  name: "gradients/linear_regression/mean_squared_error_regressor/Mean_grad/range_2"
  op: "Range"
  input: "gradients/linear_regression/mean_squared_error_regressor/Mean_grad/range_2/start"
  input: "gradients/linear_regression/mean_squared_error_regressor/Mean_grad/Rank_2"
  input: "gradients/linear_regression/mean_squared_error_regressor/Mean_grad/range_2/delta"
}
node {
  name: "gradients/linear_regression/mean_squared_error_regressor/Mean_grad/Prod_1"
  op: "Prod"
  input: "gradients/linear_regression/mean_squared_error_regressor/Mean_grad/Shape_3"
  input: "gradients/linear_regression/mean_squared_error_regressor/Mean_grad/range_2"
  attr {
    key: "T"
    value {
      type: DT_INT32
    }
  }
  attr {
    key: "keep_dims"
    value {
      b: false
    }
  }
}
node {
  name: "gradients/linear_regression/mean_squared_error_regressor/Mean_grad/floordiv_1"
  op: "Div"
  input: "gradients/linear_regression/mean_squared_error_regressor/Mean_grad/Prod"
  input: "gradients/linear_regression/mean_squared_error_regressor/Mean_grad/Prod_1"
  attr {
    key: "T"
    value {
      type: DT_INT32
    }
  }
}
node {
  name: "gradients/linear_regression/mean_squared_error_regressor/Mean_grad/Cast"
  op: "Cast"
  input: "gradients/linear_regression/mean_squared_error_regressor/Mean_grad/floordiv_1"
  attr {
    key: "DstT"
    value {
      type: DT_FLOAT
    }
  }
  attr {
    key: "SrcT"
    value {
      type: DT_INT32
    }
  }
}
node {
  name: "gradients/linear_regression/mean_squared_error_regressor/Mean_grad/truediv"
  op: "Div"
  input: "gradients/linear_regression/mean_squared_error_regressor/Mean_grad/Tile"
  input: "gradients/linear_regression/mean_squared_error_regressor/Mean_grad/Cast"
  attr {
    key: "T"
    value {
      type: DT_FLOAT
    }
  }
}
node {
  name: "gradients/linear_regression/mean_squared_error_regressor/Mul_grad/Shape"
  op: "Shape"
  input: "linear_regression/mean_squared_error_regressor/sub"
  attr {
    key: "T"
    value {
      type: DT_FLOAT
    }
  }
}
node {
  name: "gradients/linear_regression/mean_squared_error_regressor/Mul_grad/Shape_1"
  op: "Shape"
  input: "linear_regression/mean_squared_error_regressor/sub"
  attr {
    key: "T"
    value {
      type: DT_FLOAT
    }
  }
}
node {
  name: "gradients/linear_regression/mean_squared_error_regressor/Mul_grad/BroadcastGradientArgs"
  op: "BroadcastGradientArgs"
  input: "gradients/linear_regression/mean_squared_error_regressor/Mul_grad/Shape"
  input: "gradients/linear_regression/mean_squared_error_regressor/Mul_grad/Shape_1"
}
node {
  name: "gradients/linear_regression/mean_squared_error_regressor/Mul_grad/mul"
  op: "Mul"
  input: "gradients/linear_regression/mean_squared_error_regressor/Mean_grad/truediv"
  input: "linear_regression/mean_squared_error_regressor/sub"
  attr {
    key: "T"
    value {
      type: DT_FLOAT
    }
  }
}
node {
  name: "gradients/linear_regression/mean_squared_error_regressor/Mul_grad/Sum"
  op: "Sum"
  input: "gradients/linear_regression/mean_squared_error_regressor/Mul_grad/mul"
  input: "gradients/linear_regression/mean_squared_error_regressor/Mul_grad/BroadcastGradientArgs"
  attr {
    key: "T"
    value {
      type: DT_FLOAT
    }
  }
  attr {
    key: "keep_dims"
    value {
      b: false
    }
  }
}
node {
  name: "gradients/linear_regression/mean_squared_error_regressor/Mul_grad/Reshape"
  op: "Reshape"
  input: "gradients/linear_regression/mean_squared_error_regressor/Mul_grad/Sum"
  input: "gradients/linear_regression/mean_squared_error_regressor/Mul_grad/Shape"
  attr {
    key: "T"
    value {
      type: DT_FLOAT
    }
  }
}
node {
  name: "gradients/linear_regression/mean_squared_error_regressor/Mul_grad/mul_1"
  op: "Mul"
  input: "linear_regression/mean_squared_error_regressor/sub"
  input: "gradients/linear_regression/mean_squared_error_regressor/Mean_grad/truediv"
  attr {
    key: "T"
    value {
      type: DT_FLOAT
    }
  }
}
node {
  name: "gradients/linear_regression/mean_squared_error_regressor/Mul_grad/Sum_1"
  op: "Sum"
  input: "gradients/linear_regression/mean_squared_error_regressor/Mul_grad/mul_1"
  input: "gradients/linear_regression/mean_squared_error_regressor/Mul_grad/BroadcastGradientArgs:1"
  attr {
    key: "T"
    value {
      type: DT_FLOAT
    }
  }
  attr {
    key: "keep_dims"
    value {
      b: false
    }
  }
}
node {
  name: "gradients/linear_regression/mean_squared_error_regressor/Mul_grad/Reshape_1"
  op: "Reshape"
  input: "gradients/linear_regression/mean_squared_error_regressor/Mul_grad/Sum_1"
  input: "gradients/linear_regression/mean_squared_error_regressor/Mul_grad/Shape_1"
  attr {
    key: "T"
    value {
      type: DT_FLOAT
    }
  }
}
node {
  name: "gradients/AddN"
  op: "AddN"
  input: "gradients/linear_regression/mean_squared_error_regressor/Mul_grad/Reshape"
  input: "gradients/linear_regression/mean_squared_error_regressor/Mul_grad/Reshape_1"
  attr {
    key: "N"
    value {
      i: 2
    }
  }
  attr {
    key: "T"
    value {
      type: DT_FLOAT
    }
  }
}
node {
  name: "gradients/linear_regression/mean_squared_error_regressor/sub_grad/Shape"
  op: "Shape"
  input: "output"
  attr {
    key: "T"
    value {
      type: DT_FLOAT
    }
  }
}
node {
  name: "gradients/linear_regression/mean_squared_error_regressor/sub_grad/Shape_1"
  op: "Shape"
  input: "linear_regression/mean_squared_error_regressor/xw_plus_b"
  attr {
    key: "T"
    value {
      type: DT_FLOAT
    }
  }
}
node {
  name: "gradients/linear_regression/mean_squared_error_regressor/sub_grad/BroadcastGradientArgs"
  op: "BroadcastGradientArgs"
  input: "gradients/linear_regression/mean_squared_error_regressor/sub_grad/Shape"
  input: "gradients/linear_regression/mean_squared_error_regressor/sub_grad/Shape_1"
}
node {
  name: "gradients/linear_regression/mean_squared_error_regressor/sub_grad/Sum"
  op: "Sum"
  input: "gradients/AddN"
  input: "gradients/linear_regression/mean_squared_error_regressor/sub_grad/BroadcastGradientArgs"
  attr {
    key: "T"
    value {
      type: DT_FLOAT
    }
  }
  attr {
    key: "keep_dims"
    value {
      b: false
    }
  }
}
node {
  name: "gradients/linear_regression/mean_squared_error_regressor/sub_grad/Reshape"
  op: "Reshape"
  input: "gradients/linear_regression/mean_squared_error_regressor/sub_grad/Sum"
  input: "gradients/linear_regression/mean_squared_error_regressor/sub_grad/Shape"
  attr {
    key: "T"
    value {
      type: DT_FLOAT
    }
  }
}
node {
  name: "gradients/linear_regression/mean_squared_error_regressor/sub_grad/Sum_1"
  op: "Sum"
  input: "gradients/AddN"
  input: "gradients/linear_regression/mean_squared_error_regressor/sub_grad/BroadcastGradientArgs:1"
  attr {
    key: "T"
    value {
      type: DT_FLOAT
    }
  }
  attr {
    key: "keep_dims"
    value {
      b: false
    }
  }
}
node {
  name: "gradients/linear_regression/mean_squared_error_regressor/sub_grad/Neg"
  op: "Neg"
  input: "gradients/linear_regression/mean_squared_error_regressor/sub_grad/Sum_1"
  attr {
    key: "T"
    value {
      type: DT_FLOAT
    }
  }
}
node {
  name: "gradients/linear_regression/mean_squared_error_regressor/sub_grad/Reshape_1"
  op: "Reshape"
  input: "gradients/linear_regression/mean_squared_error_regressor/sub_grad/Neg"
  input: "gradients/linear_regression/mean_squared_error_regressor/sub_grad/Shape_1"
  attr {
    key: "T"
    value {
      type: DT_FLOAT
    }
  }
}
node {
  name: "gradients/linear_regression/mean_squared_error_regressor/xw_plus_b_grad/Rank"
  op: "Rank"
  input: "gradients/linear_regression/mean_squared_error_regressor/sub_grad/Reshape_1"
  attr {
    key: "T"
    value {
      type: DT_FLOAT
    }
  }
}
node {
  name: "gradients/linear_regression/mean_squared_error_regressor/xw_plus_b_grad/sub/y"
  op: "Const"
  attr {
    key: "dtype"
    value {
      type: DT_INT32
    }
  }
  attr {
    key: "value"
    value {
      tensor {
        dtype: DT_INT32
        tensor_shape {
        }
        int_val: 1
      }
    }
  }
}
node {
  name: "gradients/linear_regression/mean_squared_error_regressor/xw_plus_b_grad/sub"
  op: "Sub"
  input: "gradients/linear_regression/mean_squared_error_regressor/xw_plus_b_grad/Rank"
  input: "gradients/linear_regression/mean_squared_error_regressor/xw_plus_b_grad/sub/y"
  attr {
    key: "T"
    value {
      type: DT_INT32
    }
  }
}
node {
  name: "gradients/linear_regression/mean_squared_error_regressor/xw_plus_b_grad/range/start"
  op: "Const"
  attr {
    key: "dtype"
    value {
      type: DT_INT32
    }
  }
  attr {
    key: "value"
    value {
      tensor {
        dtype: DT_INT32
        tensor_shape {
        }
        int_val: 0
      }
    }
  }
}
node {
  name: "gradients/linear_regression/mean_squared_error_regressor/xw_plus_b_grad/range/delta"
  op: "Const"
  attr {
    key: "dtype"
    value {
      type: DT_INT32
    }
  }
  attr {
    key: "value"
    value {
      tensor {
        dtype: DT_INT32
        tensor_shape {
        }
        int_val: 1
      }
    }
  }
}
node {
  name: "gradients/linear_regression/mean_squared_error_regressor/xw_plus_b_grad/range"
  op: "Range"
  input: "gradients/linear_regression/mean_squared_error_regressor/xw_plus_b_grad/range/start"
  input: "gradients/linear_regression/mean_squared_error_regressor/xw_plus_b_grad/sub"
  input: "gradients/linear_regression/mean_squared_error_regressor/xw_plus_b_grad/range/delta"
}
node {
  name: "gradients/linear_regression/mean_squared_error_regressor/xw_plus_b_grad/Sum"
  op: "Sum"
  input: "gradients/linear_regression/mean_squared_error_regressor/sub_grad/Reshape_1"
  input: "gradients/linear_regression/mean_squared_error_regressor/xw_plus_b_grad/range"
  attr {
    key: "T"
    value {
      type: DT_FLOAT
    }
  }
  attr {
    key: "keep_dims"
    value {
      b: false
    }
  }
}
node {
  name: "gradients/linear_regression/mean_squared_error_regressor/xw_plus_b/MatMul_grad/MatMul"
  op: "MatMul"
  input: "gradients/linear_regression/mean_squared_error_regressor/sub_grad/Reshape_1"
  input: "linear_regression/weights/read"
  attr {
    key: "T"
    value {
      type: DT_FLOAT
    }
  }
  attr {
    key: "transpose_a"
    value {
      b: false
    }
  }
  attr {
    key: "transpose_b"
    value {
      b: true
    }
  }
}
node {
  name: "gradients/linear_regression/mean_squared_error_regressor/xw_plus_b/MatMul_grad/MatMul_1"
  op: "MatMul"
  input: "fully_connected_1/BiasAdd"
  input: "gradients/linear_regression/mean_squared_error_regressor/sub_grad/Reshape_1"
  attr {
    key: "T"
    value {
      type: DT_FLOAT
    }
  }
  attr {
    key: "transpose_a"
    value {
      b: true
    }
  }
  attr {
    key: "transpose_b"
    value {
      b: false
    }
  }
}
node {
  name: "gradients/fully_connected_1/BiasAdd_grad/Rank"
  op: "Rank"
  input: "gradients/linear_regression/mean_squared_error_regressor/xw_plus_b/MatMul_grad/MatMul"
  attr {
    key: "T"
    value {
      type: DT_FLOAT
    }
  }
}
node {
  name: "gradients/fully_connected_1/BiasAdd_grad/sub/y"
  op: "Const"
  attr {
    key: "dtype"
    value {
      type: DT_INT32
    }
  }
  attr {
    key: "value"
    value {
      tensor {
        dtype: DT_INT32
        tensor_shape {
        }
        int_val: 1
      }
    }
  }
}
node {
  name: "gradients/fully_connected_1/BiasAdd_grad/sub"
  op: "Sub"
  input: "gradients/fully_connected_1/BiasAdd_grad/Rank"
  input: "gradients/fully_connected_1/BiasAdd_grad/sub/y"
  attr {
    key: "T"
    value {
      type: DT_INT32
    }
  }
}
node {
  name: "gradients/fully_connected_1/BiasAdd_grad/range/start"
  op: "Const"
  attr {
    key: "dtype"
    value {
      type: DT_INT32
    }
  }
  attr {
    key: "value"
    value {
      tensor {
        dtype: DT_INT32
        tensor_shape {
        }
        int_val: 0
      }
    }
  }
}
node {
  name: "gradients/fully_connected_1/BiasAdd_grad/range/delta"
  op: "Const"
  attr {
    key: "dtype"
    value {
      type: DT_INT32
    }
  }
  attr {
    key: "value"
    value {
      tensor {
        dtype: DT_INT32
        tensor_shape {
        }
        int_val: 1
      }
    }
  }
}
node {
  name: "gradients/fully_connected_1/BiasAdd_grad/range"
  op: "Range"
  input: "gradients/fully_connected_1/BiasAdd_grad/range/start"
  input: "gradients/fully_connected_1/BiasAdd_grad/sub"
  input: "gradients/fully_connected_1/BiasAdd_grad/range/delta"
}
node {
  name: "gradients/fully_connected_1/BiasAdd_grad/Sum"
  op: "Sum"
  input: "gradients/linear_regression/mean_squared_error_regressor/xw_plus_b/MatMul_grad/MatMul"
  input: "gradients/fully_connected_1/BiasAdd_grad/range"
  attr {
    key: "T"
    value {
      type: DT_FLOAT
    }
  }
  attr {
    key: "keep_dims"
    value {
      b: false
    }
  }
}
node {
  name: "gradients/fully_connected_1/MatMul_grad/MatMul"
  op: "MatMul"
  input: "gradients/linear_regression/mean_squared_error_regressor/xw_plus_b/MatMul_grad/MatMul"
  input: "fully_connected_1/weights/read"
  attr {
    key: "T"
    value {
      type: DT_FLOAT
    }
  }
  attr {
    key: "transpose_a"
    value {
      b: false
    }
  }
  attr {
    key: "transpose_b"
    value {
      b: true
    }
  }
}
node {
  name: "gradients/fully_connected_1/MatMul_grad/MatMul_1"
  op: "MatMul"
  input: "fully_connected/Relu"
  input: "gradients/linear_regression/mean_squared_error_regressor/xw_plus_b/MatMul_grad/MatMul"
  attr {
    key: "T"
    value {
      type: DT_FLOAT
    }
  }
  attr {
    key: "transpose_a"
    value {
      b: true
    }
  }
  attr {
    key: "transpose_b"
    value {
      b: false
    }
  }
}
node {
  name: "gradients/fully_connected/Relu_grad/ReluGrad"
  op: "ReluGrad"
  input: "gradients/fully_connected_1/MatMul_grad/MatMul"
  input: "fully_connected/Relu"
  attr {
    key: "T"
    value {
      type: DT_FLOAT
    }
  }
}
node {
  name: "gradients/fully_connected/BiasAdd_grad/Rank"
  op: "Rank"
  input: "gradients/fully_connected/Relu_grad/ReluGrad"
  attr {
    key: "T"
    value {
      type: DT_FLOAT
    }
  }
}
node {
  name: "gradients/fully_connected/BiasAdd_grad/sub/y"
  op: "Const"
  attr {
    key: "dtype"
    value {
      type: DT_INT32
    }
  }
  attr {
    key: "value"
    value {
      tensor {
        dtype: DT_INT32
        tensor_shape {
        }
        int_val: 1
      }
    }
  }
}
node {
  name: "gradients/fully_connected/BiasAdd_grad/sub"
  op: "Sub"
  input: "gradients/fully_connected/BiasAdd_grad/Rank"
  input: "gradients/fully_connected/BiasAdd_grad/sub/y"
  attr {
    key: "T"
    value {
      type: DT_INT32
    }
  }
}
node {
  name: "gradients/fully_connected/BiasAdd_grad/range/start"
  op: "Const"
  attr {
    key: "dtype"
    value {
      type: DT_INT32
    }
  }
  attr {
    key: "value"
    value {
      tensor {
        dtype: DT_INT32
        tensor_shape {
        }
        int_val: 0
      }
    }
  }
}
node {
  name: "gradients/fully_connected/BiasAdd_grad/range/delta"
  op: "Const"
  attr {
    key: "dtype"
    value {
      type: DT_INT32
    }
  }
  attr {
    key: "value"
    value {
      tensor {
        dtype: DT_INT32
        tensor_shape {
        }
        int_val: 1
      }
    }
  }
}
node {
  name: "gradients/fully_connected/BiasAdd_grad/range"
  op: "Range"
  input: "gradients/fully_connected/BiasAdd_grad/range/start"
  input: "gradients/fully_connected/BiasAdd_grad/sub"
  input: "gradients/fully_connected/BiasAdd_grad/range/delta"
}
node {
  name: "gradients/fully_connected/BiasAdd_grad/Sum"
  op: "Sum"
  input: "gradients/fully_connected/Relu_grad/ReluGrad"
  input: "gradients/fully_connected/BiasAdd_grad/range"
  attr {
    key: "T"
    value {
      type: DT_FLOAT
    }
  }
  attr {
    key: "keep_dims"
    value {
      b: false
    }
  }
}
node {
  name: "gradients/fully_connected/MatMul_grad/MatMul"
  op: "MatMul"
  input: "gradients/fully_connected/Relu_grad/ReluGrad"
  input: "fully_connected/weights/read"
  attr {
    key: "T"
    value {
      type: DT_FLOAT
    }
  }
  attr {
    key: "transpose_a"
    value {
      b: false
    }
  }
  attr {
    key: "transpose_b"
    value {
      b: true
    }
  }
}
node {
  name: "gradients/fully_connected/MatMul_grad/MatMul_1"
  op: "MatMul"
  input: "input"
  input: "gradients/fully_connected/Relu_grad/ReluGrad"
  attr {
    key: "T"
    value {
      type: DT_FLOAT
    }
  }
  attr {
    key: "transpose_a"
    value {
      b: true
    }
  }
  attr {
    key: "transpose_b"
    value {
      b: false
    }
  }
}
node {
  name: "global_norm/mul"
  op: "Mul"
  input: "gradients/fully_connected/MatMul_grad/MatMul_1"
  input: "gradients/fully_connected/MatMul_grad/MatMul_1"
  attr {
    key: "T"
    value {
      type: DT_FLOAT
    }
  }
}
node {
  name: "global_norm/Rank"
  op: "Rank"
  input: "global_norm/mul"
  attr {
    key: "T"
    value {
      type: DT_FLOAT
    }
  }
}
node {
  name: "global_norm/range/start"
  op: "Const"
  attr {
    key: "dtype"
    value {
      type: DT_INT32
    }
  }
  attr {
    key: "value"
    value {
      tensor {
        dtype: DT_INT32
        tensor_shape {
        }
        int_val: 0
      }
    }
  }
}
node {
  name: "global_norm/range/delta"
  op: "Const"
  attr {
    key: "dtype"
    value {
      type: DT_INT32
    }
  }
  attr {
    key: "value"
    value {
      tensor {
        dtype: DT_INT32
        tensor_shape {
        }
        int_val: 1
      }
    }
  }
}
node {
  name: "global_norm/range"
  op: "Range"
  input: "global_norm/range/start"
  input: "global_norm/Rank"
  input: "global_norm/range/delta"
}
node {
  name: "global_norm/Sum"
  op: "Sum"
  input: "global_norm/mul"
  input: "global_norm/range"
  attr {
    key: "T"
    value {
      type: DT_FLOAT
    }
  }
  attr {
    key: "keep_dims"
    value {
      b: false
    }
  }
}
node {
  name: "global_norm/mul_1"
  op: "Mul"
  input: "gradients/fully_connected/BiasAdd_grad/Sum"
  input: "gradients/fully_connected/BiasAdd_grad/Sum"
  attr {
    key: "T"
    value {
      type: DT_FLOAT
    }
  }
}
node {
  name: "global_norm/Rank_1"
  op: "Rank"
  input: "global_norm/mul_1"
  attr {
    key: "T"
    value {
      type: DT_FLOAT
    }
  }
}
node {
  name: "global_norm/range_1/start"
  op: "Const"
  attr {
    key: "dtype"
    value {
      type: DT_INT32
    }
  }
  attr {
    key: "value"
    value {
      tensor {
        dtype: DT_INT32
        tensor_shape {
        }
        int_val: 0
      }
    }
  }
}
node {
  name: "global_norm/range_1/delta"
  op: "Const"
  attr {
    key: "dtype"
    value {
      type: DT_INT32
    }
  }
  attr {
    key: "value"
    value {
      tensor {
        dtype: DT_INT32
        tensor_shape {
        }
        int_val: 1
      }
    }
  }
}
node {
  name: "global_norm/range_1"
  op: "Range"
  input: "global_norm/range_1/start"
  input: "global_norm/Rank_1"
  input: "global_norm/range_1/delta"
}
node {
  name: "global_norm/Sum_1"
  op: "Sum"
  input: "global_norm/mul_1"
  input: "global_norm/range_1"
  attr {
    key: "T"
    value {
      type: DT_FLOAT
    }
  }
  attr {
    key: "keep_dims"
    value {
      b: false
    }
  }
}
node {
  name: "global_norm/mul_2"
  op: "Mul"
  input: "gradients/fully_connected_1/MatMul_grad/MatMul_1"
  input: "gradients/fully_connected_1/MatMul_grad/MatMul_1"
  attr {
    key: "T"
    value {
      type: DT_FLOAT
    }
  }
}
node {
  name: "global_norm/Rank_2"
  op: "Rank"
  input: "global_norm/mul_2"
  attr {
    key: "T"
    value {
      type: DT_FLOAT
    }
  }
}
node {
  name: "global_norm/range_2/start"
  op: "Const"
  attr {
    key: "dtype"
    value {
      type: DT_INT32
    }
  }
  attr {
    key: "value"
    value {
      tensor {
        dtype: DT_INT32
        tensor_shape {
        }
        int_val: 0
      }
    }
  }
}
node {
  name: "global_norm/range_2/delta"
  op: "Const"
  attr {
    key: "dtype"
    value {
      type: DT_INT32
    }
  }
  attr {
    key: "value"
    value {
      tensor {
        dtype: DT_INT32
        tensor_shape {
        }
        int_val: 1
      }
    }
  }
}
node {
  name: "global_norm/range_2"
  op: "Range"
  input: "global_norm/range_2/start"
  input: "global_norm/Rank_2"
  input: "global_norm/range_2/delta"
}
node {
  name: "global_norm/Sum_2"
  op: "Sum"
  input: "global_norm/mul_2"
  input: "global_norm/range_2"
  attr {
    key: "T"
    value {
      type: DT_FLOAT
    }
  }
  attr {
    key: "keep_dims"
    value {
      b: false
    }
  }
}
node {
  name: "global_norm/mul_3"
  op: "Mul"
  input: "gradients/fully_connected_1/BiasAdd_grad/Sum"
  input: "gradients/fully_connected_1/BiasAdd_grad/Sum"
  attr {
    key: "T"
    value {
      type: DT_FLOAT
    }
  }
}
node {
  name: "global_norm/Rank_3"
  op: "Rank"
  input: "global_norm/mul_3"
  attr {
    key: "T"
    value {
      type: DT_FLOAT
    }
  }
}
node {
  name: "global_norm/range_3/start"
  op: "Const"
  attr {
    key: "dtype"
    value {
      type: DT_INT32
    }
  }
  attr {
    key: "value"
    value {
      tensor {
        dtype: DT_INT32
        tensor_shape {
        }
        int_val: 0
      }
    }
  }
}
node {
  name: "global_norm/range_3/delta"
  op: "Const"
  attr {
    key: "dtype"
    value {
      type: DT_INT32
    }
  }
  attr {
    key: "value"
    value {
      tensor {
        dtype: DT_INT32
        tensor_shape {
        }
        int_val: 1
      }
    }
  }
}
node {
  name: "global_norm/range_3"
  op: "Range"
  input: "global_norm/range_3/start"
  input: "global_norm/Rank_3"
  input: "global_norm/range_3/delta"
}
node {
  name: "global_norm/Sum_3"
  op: "Sum"
  input: "global_norm/mul_3"
  input: "global_norm/range_3"
  attr {
    key: "T"
    value {
      type: DT_FLOAT
    }
  }
  attr {
    key: "keep_dims"
    value {
      b: false
    }
  }
}
node {
  name: "global_norm/mul_4"
  op: "Mul"
  input: "gradients/linear_regression/mean_squared_error_regressor/xw_plus_b/MatMul_grad/MatMul_1"
  input: "gradients/linear_regression/mean_squared_error_regressor/xw_plus_b/MatMul_grad/MatMul_1"
  attr {
    key: "T"
    value {
      type: DT_FLOAT
    }
  }
}
node {
  name: "global_norm/Rank_4"
  op: "Rank"
  input: "global_norm/mul_4"
  attr {
    key: "T"
    value {
      type: DT_FLOAT
    }
  }
}
node {
  name: "global_norm/range_4/start"
  op: "Const"
  attr {
    key: "dtype"
    value {
      type: DT_INT32
    }
  }
  attr {
    key: "value"
    value {
      tensor {
        dtype: DT_INT32
        tensor_shape {
        }
        int_val: 0
      }
    }
  }
}
node {
  name: "global_norm/range_4/delta"
  op: "Const"
  attr {
    key: "dtype"
    value {
      type: DT_INT32
    }
  }
  attr {
    key: "value"
    value {
      tensor {
        dtype: DT_INT32
        tensor_shape {
        }
        int_val: 1
      }
    }
  }
}
node {
  name: "global_norm/range_4"
  op: "Range"
  input: "global_norm/range_4/start"
  input: "global_norm/Rank_4"
  input: "global_norm/range_4/delta"
}
node {
  name: "global_norm/Sum_4"
  op: "Sum"
  input: "global_norm/mul_4"
  input: "global_norm/range_4"
  attr {
    key: "T"
    value {
      type: DT_FLOAT
    }
  }
  attr {
    key: "keep_dims"
    value {
      b: false
    }
  }
}
node {
  name: "global_norm/mul_5"
  op: "Mul"
  input: "gradients/linear_regression/mean_squared_error_regressor/xw_plus_b_grad/Sum"
  input: "gradients/linear_regression/mean_squared_error_regressor/xw_plus_b_grad/Sum"
  attr {
    key: "T"
    value {
      type: DT_FLOAT
    }
  }
}
node {
  name: "global_norm/Rank_5"
  op: "Rank"
  input: "global_norm/mul_5"
  attr {
    key: "T"
    value {
      type: DT_FLOAT
    }
  }
}
node {
  name: "global_norm/range_5/start"
  op: "Const"
  attr {
    key: "dtype"
    value {
      type: DT_INT32
    }
  }
  attr {
    key: "value"
    value {
      tensor {
        dtype: DT_INT32
        tensor_shape {
        }
        int_val: 0
      }
    }
  }
}
node {
  name: "global_norm/range_5/delta"
  op: "Const"
  attr {
    key: "dtype"
    value {
      type: DT_INT32
    }
  }
  attr {
    key: "value"
    value {
      tensor {
        dtype: DT_INT32
        tensor_shape {
        }
        int_val: 1
      }
    }
  }
}
node {
  name: "global_norm/range_5"
  op: "Range"
  input: "global_norm/range_5/start"
  input: "global_norm/Rank_5"
  input: "global_norm/range_5/delta"
}
node {
  name: "global_norm/Sum_5"
  op: "Sum"
  input: "global_norm/mul_5"
  input: "global_norm/range_5"
  attr {
    key: "T"
    value {
      type: DT_FLOAT
    }
  }
  attr {
    key: "keep_dims"
    value {
      b: false
    }
  }
}
node {
  name: "global_norm/pack"
  op: "Pack"
  input: "global_norm/Sum"
  input: "global_norm/Sum_1"
  input: "global_norm/Sum_2"
  input: "global_norm/Sum_3"
  input: "global_norm/Sum_4"
  input: "global_norm/Sum_5"
  attr {
    key: "N"
    value {
      i: 6
    }
  }
  attr {
    key: "T"
    value {
      type: DT_FLOAT
    }
  }
}
node {
  name: "global_norm/Rank_6"
  op: "Rank"
  input: "global_norm/pack"
  attr {
    key: "T"
    value {
      type: DT_FLOAT
    }
  }
}
node {
  name: "global_norm/range_6/start"
  op: "Const"
  attr {
    key: "dtype"
    value {
      type: DT_INT32
    }
  }
  attr {
    key: "value"
    value {
      tensor {
        dtype: DT_INT32
        tensor_shape {
        }
        int_val: 0
      }
    }
  }
}
node {
  name: "global_norm/range_6/delta"
  op: "Const"
  attr {
    key: "dtype"
    value {
      type: DT_INT32
    }
  }
  attr {
    key: "value"
    value {
      tensor {
        dtype: DT_INT32
        tensor_shape {
        }
        int_val: 1
      }
    }
  }
}
node {
  name: "global_norm/range_6"
  op: "Range"
  input: "global_norm/range_6/start"
  input: "global_norm/Rank_6"
  input: "global_norm/range_6/delta"
}
node {
  name: "global_norm/Sum_6"
  op: "Sum"
  input: "global_norm/pack"
  input: "global_norm/range_6"
  attr {
